{
  "version": "1.0",
  "truncation": null,
  "padding": null,
  "added_tokens": [
    {
      "id": 0,
      "content": "[PAD]",
      "single_word": false,
      "lstrip": false,
      "rstrip": false,
      "normalized": false,
      "special": true
    },
    {
      "id": 1,
      "content": "[BOS]",
      "single_word": false,
      "lstrip": false,
      "rstrip": false,
      "normalized": false,
      "special": true
    },
    {
      "id": 2,
      "content": "[EOS]",
      "single_word": false,
      "lstrip": false,
      "rstrip": false,
      "normalized": false,
      "special": true
    }
  ],
  "normalizer": null,
  "pre_tokenizer": {
    "type": "ByteLevel",
    "add_prefix_space": true,
    "trim_offsets": true,
    "use_regex": true
  },
  "post_processor": null,
  "decoder": {
    "type": "ByteLevel",
    "add_prefix_space": true,
    "trim_offsets": true,
    "use_regex": true
  },
  "model": {
    "type": "BPE",
    "dropout": null,
    "unk_token": null,
    "continuing_subword_prefix": null,
    "end_of_word_suffix": null,
    "fuse_unk": false,
    "byte_fallback": false,
    "ignore_merges": false,
    "vocab": {
      "[PAD]": 0,
      "[BOS]": 1,
      "[EOS]": 2,
      "!": 3,
      "\"": 4,
      "#": 5,
      "$": 6,
      "%": 7,
      "&": 8,
      "'": 9,
      "(": 10,
      ")": 11,
      "*": 12,
      "+": 13,
      ",": 14,
      "-": 15,
      ".": 16,
      "/": 17,
      "0": 18,
      "1": 19,
      "2": 20,
      "3": 21,
      "4": 22,
      "5": 23,
      "6": 24,
      "7": 25,
      "8": 26,
      "9": 27,
      ":": 28,
      ";": 29,
      "<": 30,
      "=": 31,
      ">": 32,
      "?": 33,
      "@": 34,
      "A": 35,
      "B": 36,
      "C": 37,
      "D": 38,
      "E": 39,
      "F": 40,
      "G": 41,
      "H": 42,
      "I": 43,
      "J": 44,
      "K": 45,
      "L": 46,
      "M": 47,
      "N": 48,
      "O": 49,
      "P": 50,
      "Q": 51,
      "R": 52,
      "S": 53,
      "T": 54,
      "U": 55,
      "V": 56,
      "W": 57,
      "X": 58,
      "Y": 59,
      "Z": 60,
      "[": 61,
      "\\": 62,
      "]": 63,
      "^": 64,
      "_": 65,
      "`": 66,
      "a": 67,
      "b": 68,
      "c": 69,
      "d": 70,
      "e": 71,
      "f": 72,
      "g": 73,
      "h": 74,
      "i": 75,
      "j": 76,
      "k": 77,
      "l": 78,
      "m": 79,
      "n": 80,
      "o": 81,
      "p": 82,
      "q": 83,
      "r": 84,
      "s": 85,
      "t": 86,
      "u": 87,
      "v": 88,
      "w": 89,
      "x": 90,
      "y": 91,
      "z": 92,
      "{": 93,
      "|": 94,
      "}": 95,
      "~": 96,
      "¡": 97,
      "¢": 98,
      "£": 99,
      "¤": 100,
      "¥": 101,
      "¦": 102,
      "§": 103,
      "¨": 104,
      "©": 105,
      "ª": 106,
      "«": 107,
      "¬": 108,
      "®": 109,
      "¯": 110,
      "°": 111,
      "±": 112,
      "²": 113,
      "³": 114,
      "´": 115,
      "µ": 116,
      "¶": 117,
      "·": 118,
      "¸": 119,
      "¹": 120,
      "º": 121,
      "»": 122,
      "¼": 123,
      "½": 124,
      "¾": 125,
      "¿": 126,
      "Â": 127,
      "Ã": 128,
      "Ä": 129,
      "Å": 130,
      "Æ": 131,
      "Ç": 132,
      "È": 133,
      "É": 134,
      "Ê": 135,
      "Ë": 136,
      "Ì": 137,
      "Í": 138,
      "Î": 139,
      "Ï": 140,
      "Ð": 141,
      "Ñ": 142,
      "Ò": 143,
      "Ó": 144,
      "Ô": 145,
      "Õ": 146,
      "Ö": 147,
      "×": 148,
      "Ø": 149,
      "Ù": 150,
      "Ú": 151,
      "Û": 152,
      "Ü": 153,
      "Ý": 154,
      "Þ": 155,
      "ß": 156,
      "à": 157,
      "á": 158,
      "â": 159,
      "ã": 160,
      "ä": 161,
      "å": 162,
      "æ": 163,
      "ç": 164,
      "è": 165,
      "é": 166,
      "ê": 167,
      "ë": 168,
      "ì": 169,
      "í": 170,
      "î": 171,
      "ï": 172,
      "ð": 173,
      "ó": 174,
      "ô": 175,
      "Ĉ": 176,
      "ĉ": 177,
      "Ċ": 178,
      "Č": 179,
      "č": 180,
      "Đ": 181,
      "Ġ": 182,
      "Ģ": 183,
      "ģ": 184,
      "Ĥ": 185,
      "ĥ": 186,
      "Ħ": 187,
      "ħ": 188,
      "Ĩ": 189,
      "ĩ": 190,
      "Ī": 191,
      "ī": 192,
      "Ĭ": 193,
      "ĭ": 194,
      "Į": 195,
      "į": 196,
      "İ": 197,
      "ı": 198,
      "Ĳ": 199,
      "ĳ": 200,
      "Ĵ": 201,
      "ĵ": 202,
      "Ķ": 203,
      "ķ": 204,
      "ĸ": 205,
      "Ĺ": 206,
      "ĺ": 207,
      "Ļ": 208,
      "ļ": 209,
      "Ľ": 210,
      "ľ": 211,
      "Ŀ": 212,
      "ŀ": 213,
      "Ł": 214,
      "ł": 215,
      "Ń": 216,
      "Ġt": 217,
      "Ġa": 218,
      "he": 219,
      "in": 220,
      "ĠĠ": 221,
      "čĊ": 222,
      "re": 223,
      "Ġthe": 224,
      "on": 225,
      "er": 226,
      "Ġs": 227,
      "Ġo": 228,
      "at": 229,
      "en": 230,
      "Ġw": 231,
      "nd": 232,
      "Ġc": 233,
      "is": 234,
      "es": 235,
      "or": 236,
      "it": 237,
      "ed": 238,
      "Ġb": 239,
      "al": 240,
      "Ġf": 241,
      "an": 242,
      "Ġof": 243,
      "Ġp": 244,
      "ččĊ": 245,
      "ar": 246,
      "Ġin": 247,
      "ing": 248,
      "ou": 249,
      "Ġm": 250,
      "Ġand": 251,
      "Ġto": 252,
      "ic": 253,
      "Ġd": 254,
      "ion": 255,
      "ĠĠĠĠ": 256,
      "as": 257,
      "Ġh": 258,
      "le": 259,
      "ro": 260,
      "Ġth": 261,
      "ent": 262,
      "ĠT": 263,
      "il": 264,
      "el": 265,
      "ĠččĊ": 266,
      "Ġl": 267,
      "Ġre": 268,
      "Ġn": 269,
      "st": 270,
      "om": 271,
      "ct": 272,
      "Ġe": 273,
      "âĢ": 274,
      "ĠA": 275,
      "ĠS": 276,
      "et": 277,
      "ol": 278,
      "ĠI": 279,
      "Ġg": 280,
      "im": 281,
      "ve": 282,
      "id": 283,
      "ĠC": 284,
      "ot": 285,
      "Ġis": 286,
      "ut": 287,
      "ly": 288,
      "ur": 289,
      "ad": 290,
      "am": 291,
      "Ġbe": 292,
      "us": 293,
      "ce": 294,
      "ation": 295,
      "ch": 296,
      "ow": 297,
      "ig": 298,
      "Ġfor": 299,
      "Ġon": 300,
      "ir": 301,
      "ver": 302,
      "ĠThe": 303,
      "ĠM": 304,
      "Ġst": 305,
      "Ġthat": 306,
      "ay": 307,
      "Ġhe": 308,
      "Ġ1": 309,
      "Ġas": 310,
      "ith": 311,
      "Ġ(": 312,
      "ul": 313,
      "ra": 314,
      "ĠB": 315,
      "se": 316,
      "Ġy": 317,
      "ĠP": 318,
      "Ġwith": 319,
      "Ġwh": 320,
      "ter": 321,
      "ĠH": 322,
      "un": 323,
      "if": 324,
      "Ġan": 325,
      "Ġit": 326,
      "Ġal": 327,
      "Ġwas": 328,
      "Ġcon": 329,
      "od": 330,
      "her": 331,
      "Ġpro": 332,
      "th": 333,
      "ist": 334,
      "ĠW": 335,
      "Ġor": 336,
      "ĠčĊ": 337,
      "ge": 338,
      "um": 339,
      "Ġde": 340,
      "ĠR": 341,
      "ĠĠĠĠĠ": 342,
      "ĠD": 343,
      "Ġare": 344,
      "ere": 345,
      "ers": 346,
      "ri": 347,
      "Ġyou": 348,
      "op": 349,
      "ĠĠĠ": 350,
      "ĠF": 351,
      "est": 352,
      "and": 353,
      "ab": 354,
      "ac": 355,
      "ill": 356,
      "ĠE": 357,
      "ess": 358,
      "rom": 359,
      "Ġby": 360,
      "em": 361,
      "ld": 362,
      "Ġ2": 363,
      "res": 364,
      "ĠL": 365,
      "Ġat": 366,
      "ate": 367,
      "ĠN": 368,
      "Ġcom": 369,
      "os": 370,
      "Ġv": 371,
      "ain": 372,
      "ĠG": 373,
      "Ġex": 374,
      "ore": 375,
      "pe": 376,
      "ĠâĢ": 377,
      "igh": 378,
      "ity": 379,
      "qu": 380,
      "ment": 381,
      "Ġfrom": 382,
      "ke": 383,
      "ies": 384,
      "Ġsu": 385,
      "Ġse": 386,
      "âĢĻ": 387,
      "ant": 388,
      "Ġr": 389,
      "iv": 390,
      "ort": 391,
      "oc": 392,
      "ĠĠĠĠĠĠĠĠ": 393,
      "Ġha": 394,
      "Ġnot": 395,
      "ud": 396,
      "pp": 397,
      "Ġch": 398,
      "00": 399,
      "ive": 400,
      "ĠO": 401,
      "Ġne": 402,
      "nt": 403,
      "art": 404,
      "all": 405,
      "Ġ\"": 406,
      "Ġsh": 407,
      "ich": 408,
      "ect": 409,
      "ure": 410,
      "ĠJ": 411,
      "Ġus": 412,
      "ight": 413,
      "Ġle": 414,
      "Ġ-": 415,
      "gh": 416,
      "Ġ19": 417,
      "ard": 418,
      "Ġu": 419,
      "end": 420,
      "Ġhave": 421,
      "ĠIn": 422,
      "ial": 423,
      "pt": 424,
      "Ġhis": 425,
      "og": 426,
      "our": 427,
      "ell": 428,
      "ould": 429,
      "Ġcan": 430,
      "rou": 431,
      "ag": 432,
      "ical": 433,
      "Ġpl": 434,
      "Ġthis": 435,
      "ust": 436,
      "ost": 437,
      "'s": 438,
      "ast": 439,
      "ine": 440,
      "ated": 441,
      "out": 442,
      "ĠU": 443,
      "Ġwhich": 444,
      "ome": 445,
      "Ġwor": 446,
      "Ġab": 447,
      "ions": 448,
      "per": 449,
      "Ġwe": 450,
      "Ġk": 451,
      "ther": 452,
      "Ġim": 453,
      "pl": 454,
      "ak": 455,
      "ĠĠĠĠĠĠĠ": 456,
      "ame": 457,
      "Ġint": 458,
      "ous": 459,
      "ong": 460,
      "ff": 461,
      "Ġwhe": 462,
      "ans": 463,
      "Ġtheir": 464,
      "red": 465,
      "age": 466,
      "ĠâĢľ": 467,
      "âĢĿ": 468,
      "ie": 469,
      "ia": 470,
      "Ġall": 471,
      "Ġwere": 472,
      "ĠTh": 473,
      "Ġthey": 474,
      "iz": 475,
      "ber": 476,
      "ult": 477,
      "ip": 478,
      "ary": 479,
      "ide": 480,
      "act": 481,
      "Ġen": 482,
      "cl": 483,
      "ru": 484,
      "ap": 485,
      "ood": 486,
      "Ġhad": 487,
      "Ġun": 488,
      "cc": 489,
      "Ġbut": 490,
      "ear": 491,
      "ass": 492,
      "ĠK": 493,
      "ok": 494,
      "ĠSt": 495,
      "Ġad": 496,
      "du": 497,
      "ry": 498,
      "Ġme": 499,
      "elf": 500,
      "Ġcont": 501,
      "Ġman": 502,
      "Ġcl": 503,
      "Ġcomp": 504,
      "ind": 505,
      "Ġdis": 506,
      "Ġres": 507,
      "so": 508,
      "orm": 509,
      "ish": 510,
      "Ġhas": 511,
      "ack": 512,
      "ations": 513,
      "are": 514,
      "Ġone": 515,
      "av": 516,
      "ib": 517,
      "able": 518,
      "Ġdo": 519,
      "one": 520,
      "Ġ=": 521,
      "Ġwho": 522,
      "Ġmore": 523,
      "ord": 524,
      "ian": 525,
      "ep": 526,
      "Ġso": 527,
      "Ġwill": 528,
      "ence": 529,
      "ater": 530,
      "Ġar": 531,
      "ild": 532,
      "Ġother": 533,
      "ice": 534,
      "ign": 535,
      "ĠCh": 536,
      "ime": 537,
      "vel": 538,
      "Ġj": 539,
      "ance": 540,
      "ue": 541,
      "port": 542,
      "Ġyour": 543,
      "ction": 544,
      "ub": 545,
      "Ġup": 546,
      "),": 547,
      "ally": 548,
      "ĠIt": 549,
      "Ġalso": 550,
      "Ġout": 551,
      "Ġper": 552,
      "ach": 553,
      "ents": 554,
      "ĠV": 555,
      "ire": 556,
      "ace": 557,
      "ount": 558,
      "ress": 559,
      "reat": 560,
      "ake": 561,
      "ew": 562,
      "ound": 563,
      "rit": 564,
      "mer": 565,
      "ks": 566,
      "ces": 567,
      "Ġte": 568,
      "Ġsa": 569,
      "very": 570,
      "ase": 571,
      "ory": 572,
      "Ġher": 573,
      "ile": 574,
      "ang": 575,
      "ens": 576,
      "ely": 577,
      "Ġpart": 578,
      "ose": 579,
      "own": 580,
      "Ġsp": 581,
      "Ġthem": 582,
      "Ġ20": 583,
      "ition": 584,
      "Ġits": 585,
      ").": 586,
      "Ġev": 587,
      "Ġbeen": 588,
      "Ġsc": 589,
      "ĠHe": 590,
      "ree": 591,
      "ook": 592,
      "con": 593,
      "ough": 594,
      "ric": 595,
      "ors": 596,
      "Ġkn": 597,
      "ĠY": 598,
      "aus": 599,
      "Ġag": 600,
      "int": 601,
      "Ġpe": 602,
      "Ġabout": 603,
      "Ġif": 604,
      "ite": 605,
      "hed": 606,
      "Ġtr": 607,
      "Ġ3": 608,
      "vers": 609,
      "Ġro": 610,
      "Ġwhen": 611,
      "Ġthere": 612,
      "Ġ200": 613,
      "Ġqu": 614,
      "Ġbec": 615,
      "ings": 616,
      "ph": 617,
      "irst": 618,
      "urn": 619,
      "Ġpre": 620,
      "ays": 621,
      "erv": 622,
      "fere": 623,
      "tern": 624,
      "Ġinto": 625,
      "form": 626,
      "Ġspe": 627,
      "ath": 628,
      "nder": 629,
      "Ġgo": 630,
      "Ġthan": 631,
      "ĠThis": 632,
      "Âł": 633,
      "Ġyear": 634,
      "ates": 635,
      "Ġli": 636,
      "Ġhim": 637,
      "Ġtw": 638,
      "Ġwould": 639,
      "Ġsome": 640,
      "Ġcomm": 641,
      "wn": 642,
      "Ġtime": 643,
      "Ġno": 644,
      "Ġover": 645,
      "ove": 646,
      "ail": 647,
      "low": 648,
      "te": 649,
      "ople": 650,
      "Ġstud": 651,
      "Ġrec": 652,
      "Ġsy": 653,
      "ng": 654,
      "ĠUn": 655,
      "ĠRe": 656,
      "Ġmay": 657,
      "fter": 658,
      "ade": 659,
      "ĠAl": 660,
      "rough": 661,
      "old": 662,
      "olog": 663,
      "we": 664,
      "Ġshe": 665,
      "Ġdes": 666,
      "ious": 667,
      "Ġfirst": 668,
      "Ġapp": 669,
      "Ġind": 670,
      "clud": 671,
      "Ġ'": 672,
      "ons": 673,
      "ck": 674,
      "ool": 675,
      "ob": 676,
      "ov": 677,
      "Ġbl": 678,
      "ject": 679,
      "ual": 680,
      "Ġunder": 681,
      "Ġbet": 682,
      "ne": 683,
      "Ġwork": 684,
      "ys": 685,
      "ark": 686,
      "Ġcons": 687,
      "amp": 688,
      "erm": 689,
      "ĠĠĠĠĠĠĠĠĠĠĠ": 690,
      "Ġnew": 691,
      "ational": 692,
      "Ġpeople": 693,
      "lic": 694,
      "Ġact": 695,
      "lect": 696,
      "Ġam": 697,
      "ced": 698,
      "ied": 699,
      "Ġmost": 700,
      "Ġany": 701,
      "ĠâĢĵ": 702,
      "Ġtwo": 703,
      "ren": 704,
      "Ġthese": 705,
      "Ġacc": 706,
      "les": 707,
      "iss": 708,
      "Ġcol": 709,
      "Ġoff": 710,
      "Ġonly": 711,
      "ert": 712,
      "âĢĶ": 713,
      "Ġhow": 714,
      "Ġ201": 715,
      "Ġsuch": 716,
      "Ġpr": 717,
      "Ġmy": 718,
      "ause": 719,
      "Ġra": 720,
      "ific": 721,
      "Ġdef": 722,
      "Ġsaid": 723,
      "cre": 724,
      "ĠAs": 725,
      "ities": 726,
      "Ġdif": 727,
      "Ġinclud": 728,
      "Ġfe": 729,
      "Ġ4": 730,
      "Ġrel": 731,
      "Ġwhat": 732,
      "ning": 733,
      "rib": 734,
      "Ġour": 735,
      "land": 736,
      "Ġgen": 737,
      "ĠĠĠĠččĊ": 738,
      "ient": 739,
      "Ġuse": 740,
      "xt": 741,
      "ft": 742,
      "ĠSe": 743,
      "fore": 744,
      "ise": 745,
      "ful": 746,
      "eth": 747,
      "oth": 748,
      "ĠWh": 749,
      "ular": 750,
      "cess": 751,
      "oss": 752,
      "uring": 753,
      "Ġatt": 754,
      "Ġass": 755,
      "Ġthrough": 756,
      "als": 757,
      "Ġtra": 758,
      "itt": 759,
      "Ġimp": 760,
      "round": 761,
      "ink": 762,
      "ife": 763,
      "--": 764,
      "aw": 765,
      "ick": 766,
      "ered": 767,
      "Ġused": 768,
      "ond": 769,
      "Ġob": 770,
      "ict": 771,
      "hen": 772,
      "ited": 773,
      "Ġ18": 774,
      "Ġself": 775,
      "stem": 776,
      "ating": 777,
      "velop": 778,
      "ased": 779,
      "Ġfl": 780,
      "Ġreg": 781,
      "ics": 782,
      "Ġprodu": 783,
      "ram": 784,
      "Ġpo": 785,
      "meric": 786,
      "row": 787,
      "Ġchild": 788,
      "Ġcould": 789,
      "Ġrem": 790,
      "Ġafter": 791,
      "Ġmany": 792,
      "Ġco": 793,
      "19": 794,
      "Ġ5": 795,
      "self": 796,
      "Ġlike": 797,
      "Ġem": 798,
      "Ġform": 799,
      "arg": 800,
      "ange": 801,
      "Ġph": 802,
      "alth": 803,
      "ffect": 804,
      "Ġprov": 805,
      "Ġimport": 806,
      "Ġspec": 807,
      "Ġsub": 808,
      "Ġret": 809,
      "hes": 810,
      "Ġ[": 811,
      "oy": 812,
      "ments": 813,
      "Ġwhere": 814,
      "ars": 815,
      "gan": 816,
      "iet": 817,
      "ward": 818,
      "ty": 819,
      "Ġhel": 820,
      "ĠAmeric": 821,
      "chool": 822,
      "Ġac": 823,
      "Ġwell": 824,
      "arch": 825,
      "Ġshould": 826,
      "ily": 827,
      "ween": 828,
      "Ġthen": 829,
      "Ġneed": 830,
      "ll": 831,
      "ative": 832,
      "Ġsm": 833,
      "Ġyears": 834,
      "ata": 835,
      "ible": 836,
      "uch": 837,
      "Ġpres": 838,
      "ten": 839,
      "ures": 840,
      "Ġbu": 841,
      "ower": 842,
      "ĠAr": 843,
      "Ġadd": 844,
      "ts": 845,
      "Ġsupp": 846,
      "âĢĵ": 847,
      "Ġdevelop": 848,
      ".âĢĿ": 849,
      "Ġsur": 850,
      "ĠAn": 851,
      "ble": 852,
      "Ġpol": 853,
      "ins": 854,
      "Ġhelp": 855,
      "Ġbetween": 856,
      "orn": 857,
      "other": 858,
      "cy": 859,
      "Ġear": 860,
      "Ġnum": 861,
      "ract": 862,
      "ock": 863,
      "ron": 864,
      "its": 865,
      "Ġinv": 866,
      "Ġknow": 867,
      "Ġmod": 868,
      "Ġvery": 869,
      "Ġfound": 870,
      "Ġ#": 871,
      "ĠCom": 872,
      "):": 873,
      "Ġinf": 874,
      "uc": 875,
      "Ġsystem": 876,
      "ivers": 877,
      "ident": 878,
      "ution": 879,
      "Ġlong": 880,
      "cept": 881,
      "Ġinst": 882,
      "eld": 883,
      "ility": 884,
      "Ġagain": 885,
      "Ġdiffere": 886,
      "ather": 887,
      "ism": 888,
      "Ġ|": 889,
      "pect": 890,
      "Ġ199": 891,
      "ness": 892,
      "Ġget": 893,
      "ĠDe": 894,
      "ists": 895,
      "ĠPro": 896,
      "Ġtrans": 897,
      "ĠAnd": 898,
      "io": 899,
      "ever": 900,
      "Ġcall": 901,
      "Ġinter": 902,
      "Ġhigh": 903,
      "Ġmade": 904,
      "ines": 905,
      "Ġsee": 906,
      "ollow": 907,
      "ants": 908,
      "led": 909,
      "ĠNew": 910,
      "up": 911,
      "Ġcent": 912,
      "Ġset": 913,
      "Ġexp": 914,
      "Ġmake": 915,
      "Ġcount": 916,
      "Ġpers": 917,
      "get": 918,
      "Ġwater": 919,
      "ĠFor": 920,
      "ĠWe": 921,
      "Ġdist": 922,
      ".\"": 923,
      "Ġbeing": 924,
      "cent": 925,
      "ature": 926,
      "ork": 927,
      "ished": 928,
      "Ġplay": 929,
      "ix": 930,
      "Ġent": 931,
      "Ġend": 932,
      "ale": 933,
      "arm": 934,
      "Ġbefore": 935,
      "Ġeven": 936,
      "ug": 937,
      "Ġpub": 938,
      "Ġown": 939,
      "ros": 940,
      "Ġ6": 941,
      "Ġbel": 942,
      "ex": 943,
      "roup": 944,
      "Ġed": 945,
      "ually": 946,
      "Ġke": 947,
      "hip": 948,
      "ural": 949,
      "ĠCon": 950,
      "Ġback": 951,
      "ran": 952,
      "way": 953,
      "ience": 954,
      "iew": 955,
      "Ġway": 956,
      "..": 957,
      "Ġjust": 958,
      "ĠBut": 959,
      "Ġstr": 960,
      "ology": 961,
      "any": 962,
      "ved": 963,
      "ince": 964,
      "Ġcar": 965,
      "aking": 966,
      "Ġloc": 967,
      "Ġext": 968,
      "Ġgener": 969,
      "air": 970,
      "Ġnow": 971,
      "vent": 972,
      "Ġworld": 973,
      "com": 974,
      "Ġevery": 975,
      "ield": 976,
      "ĠIf": 977,
      "Ġfollow": 978,
      "Ġsim": 979,
      "Ġbecause": 980,
      "ax": 981,
      "Ġmuch": 982,
      "ĠHow": 983,
      "20": 984,
      "Ġty": 985,
      "Ġlife": 986,
      "Ġthose": 987,
      "ting": 988,
      "Ġdid": 989,
      "vern": 990,
      "Ġsign": 991,
      "ues": 992,
      "ĠThey": 993,
      "Ġhand": 994,
      "ah": 995,
      "au": 996,
      "li": 997,
      "ury": 998,
      "Ġap": 999,
      "oh": 1000,
      "ĠThere": 1001,
      ",âĢĿ": 1002,
      "Ġlook": 1003,
      "ave": 1004,
      "Ġart": 1005,
      "ize": 1006,
      "ĠĠĠĠĠĠĠĠĠĠĠĠĠĠĠĠ": 1007,
      "Ġserv": 1008,
      "inal": 1009,
      "Ġrep": 1010,
      "Ġduring": 1011,
      "Ġmed": 1012,
      "chn": 1013,
      "Ġvar": 1014,
      "man": 1015,
      "imes": 1016,
      "Ġdet": 1017,
      "ĠSc": 1018,
      "Ġdisc": 1019,
      "Ġmon": 1020,
      "Ġsame": 1021,
      "Ġeach": 1022,
      "Ġgood": 1023,
      "Ġreturn": 1024,
      "Ġresult": 1025,
      "ral": 1026,
      "ages": 1027,
      "Ġfam": 1028,
      "Ġdown": 1029,
      "gy": 1030,
      "und": 1031,
      "der": 1032,
      "ouse": 1033,
      "ĠâĢĺ": 1034,
      "cial": 1035,
      "Ġhum": 1036,
      "ody": 1037,
      "ven": 1038,
      "ined": 1039,
      "uth": 1040,
      "ĠLe": 1041,
      "Ġright": 1042,
      "ĠInd": 1043,
      "els": 1044,
      "Ġdep": 1045,
      "ives": 1046,
      "ms": 1047,
      "cer": 1048,
      "Ġwrit": 1049,
      "Ġrese": 1050,
      "Ġthough": 1051,
      "Ġprog": 1052,
      "Ġdifferent": 1053,
      "read": 1054,
      "ically": 1055,
      "Ġhealth": 1056,
      "iversity": 1057,
      "Ġcur": 1058,
      "Ġcre": 1059,
      "',": 1060,
      "ized": 1061,
      "Ġrequ": 1062,
      "Ġthree": 1063,
      "ĠAmerican": 1064,
      "outh": 1065,
      "att": 1066,
      "ruct": 1067,
      "Ġwhile": 1068,
      "rop": 1069,
      "Ġeffect": 1070,
      "ĠOn": 1071,
      "Ġop": 1072,
      "let": 1073,
      "Ġmem": 1074,
      "Ġschool": 1075,
      "Ġgl": 1076,
      "Ġgreat": 1077,
      "Ġmin": 1078,
      "Ġref": 1079,
      "ene": 1080,
      "Ġday": 1081,
      "Ġread": 1082,
      "ters": 1083,
      "ision": 1084,
      "Ġexper": 1085,
      "Ġgr": 1086,
      "Ġincre": 1087,
      "irect": 1088,
      "formation": 1089,
      "Ġboth": 1090,
      "ĠSh": 1091,
      "cond": 1092,
      "Ġlead": 1093,
      "ices": 1094,
      "Ġ7": 1095,
      "Ġval": 1096,
      "Ġdec": 1097,
      "Ġpat": 1098,
      "Ġshow": 1099,
      "ĠEx": 1100,
      "##": 1101,
      "ving": 1102,
      "ĠBe": 1103,
      "Ġser": 1104,
      "oun": 1105,
      "Ġest": 1106,
      "Ġchildren": 1107,
      "ull": 1108,
      "Ġfact": 1109,
      "Ġpartic": 1110,
      "Ġpop": 1111,
      "pr": 1112,
      "Ġlear": 1113,
      "ash": 1114,
      "ute": 1115,
      "ner": 1116,
      "ĠIs": 1117,
      "000": 1118,
      "ared": 1119,
      "feren": 1120,
      "Ġmust": 1121,
      "ĠAt": 1122,
      "arge": 1123,
      "\",": 1124,
      "ĠEng": 1125,
      "aj": 1126,
      "Ġins": 1127,
      "Ġclass": 1128,
      "raph": 1129,
      "Ġsk": 1130,
      "Ġ10": 1131,
      "ases": 1132,
      "Ġgroup": 1133,
      "Ġsmall": 1134,
      "ason": 1135,
      "lish": 1136,
      "gg": 1137,
      "Ġcommun": 1138,
      "to": 1139,
      "Ġsoc": 1140,
      "Ġhist": 1141,
      "Ġ8": 1142,
      "Ġtest": 1143,
      "Ġpass": 1144,
      "Ġfind": 1145,
      "hem": 1146,
      "ĠYou": 1147,
      "Ġ0": 1148,
      "ves": 1149,
      "iron": 1150,
      "Ġperson": 1151,
      "Ġwom": 1152,
      "Ġprocess": 1153,
      "ired": 1154,
      "Ġmain": 1155,
      "Ġnumber": 1156,
      "ittle": 1157,
      "__": 1158,
      "ample": 1159,
      "ton": 1160,
      "az": 1161,
      "orth": 1162,
      "Ġocc": 1163,
      "ĠTo": 1164,
      "The": 1165,
      ".,": 1166,
      "ames": 1167,
      "Ġtake": 1168,
      "Ġbr": 1169,
      "ds": 1170,
      "uss": 1171,
      "ional": 1172,
      "ross": 1173,
      "Ġbo": 1174,
      "Ġdoes": 1175,
      "ets": 1176,
      "Ġdata": 1177,
      "Ġ198": 1178,
      "eng": 1179,
      "ĠCol": 1180,
      "Ġold": 1181,
      "Ġposs": 1182,
      "ier": 1183,
      "Ġcalled": 1184,
      "Ġ9": 1185,
      "the": 1186,
      "Ġconf": 1187,
      "ĠCl": 1188,
      "Ġknown": 1189,
      "'t": 1190,
      "ality": 1191,
      "Ġtechn": 1192,
      "Ġel": 1193,
      "Ġbro": 1194,
      "Ġpoint": 1195,
      "Ġmat": 1196,
      "rent": 1197,
      "Ġav": 1198,
      "Ġgu": 1199,
      "ium": 1200,
      "Ġland": 1201,
      "Ġlevel": 1202,
      "osed": 1203,
      "ains": 1204,
      "Ġ&": 1205,
      "Ġappe": 1206,
      "Ġcontin": 1207,
      "Ġimportant": 1208,
      "Ġstart": 1209,
      "ides": 1210,
      "Ġfil": 1211,
      "Ġplace": 1212,
      "Ġpower": 1213,
      "Ġexpl": 1214,
      "ĠAd": 1215,
      "ĠWhen": 1216,
      "Ġresp": 1217,
      "Ġmus": 1218,
      "Ġname": 1219,
      "oot": 1220,
      "Ġdi": 1221,
      "Ġstudents": 1222,
      "Ġoften": 1223,
      "alk": 1224,
      "par": 1225,
      "Ġinformation": 1226,
      "Ġcour": 1227,
      "Ġstill": 1228,
      "ple": 1229,
      "ulation": 1230,
      "Ġcare": 1231,
      "Ġless": 1232,
      "10": 1233,
      "ĠShe": 1234,
      "ĠUniversity": 1235,
      "ĠUnited": 1236,
      "akes": 1237,
      "Ġmight": 1238,
      "Ġgovern": 1239,
      "Ġconst": 1240,
      "ĠPh": 1241,
      "rol": 1242,
      "Ġdesign": 1243,
      "bers": 1244,
      "ivid": 1245,
      "ĠQ": 1246,
      "Ġlittle": 1247,
      "rain": 1248,
      "ÂłÂł": 1249,
      "Ġprogram": 1250,
      "Ġstudy": 1251,
      "ained": 1252,
      "Ġstate": 1253,
      "Ġmet": 1254,
      "Ġagainst": 1255,
      "Ġorgan": 1256,
      "ank": 1257,
      "Ġupon": 1258,
      "iety": 1259,
      "Ġmen": 1260,
      "Ġsom": 1261,
      "Ġconsid": 1262,
      "Ġfun": 1263,
      "Ġwithout": 1264,
      "ode": 1265,
      "Ġprot": 1266,
      "Ġthink": 1267,
      "Ġlast": 1268,
      "Ġhead": 1269,
      "Ġsl": 1270,
      "Ġfood": 1271,
      "stand": 1272,
      "Ġincluding": 1273,
      "bs": 1274,
      "Ġsol": 1275,
      "Ġaround": 1276,
      "Ġ.": 1277,
      "Ġelect": 1278,
      "day": 1279,
      "ĠZ": 1280,
      "ien": 1281,
      "ital": 1282,
      "Ġsupport": 1283,
      "iving": 1284,
      "ived": 1285,
      "Ġusing": 1286,
      "Ġproble": 1287,
      "ense": 1288,
      "Ġbuild": 1289,
      "ann": 1290,
      "ians": 1291,
      "Ġadv": 1292,
      "Ġopen": 1293,
      "Ġdirect": 1294,
      "Ġcle": 1295,
      "Ġsecond": 1296,
      "lished": 1297,
      "Ġpublic": 1298,
      "val": 1299,
      "Ġair": 1300,
      "ern": 1301,
      "viron": 1302,
      "acter": 1303,
      ",\"": 1304,
      "Ġsay": 1305,
      "ĠSp": 1306,
      "ĠĠĠĠĠĠĠĠĠĠĠĠĠĠĠ": 1307,
      "Ġgre": 1308,
      "Ġpar": 1309,
      "ately": 1310,
      "Ġcor": 1311,
      "Ġgrow": 1312,
      "ted": 1313,
      "Ġbook": 1314,
      "Ġbody": 1315,
      "ery": 1316,
      "Ġactiv": 1317,
      "less": 1318,
      "mon": 1319,
      "ried": 1320,
      "Ġanother": 1321,
      "Ġcommon": 1322,
      "ering": 1323,
      "Ġpresent": 1324,
      "Ġpur": 1325,
      "Ġchar": 1326,
      "rist": 1327,
      "apt": 1328,
      "oci": 1329,
      "itions": 1330,
      "Ġ197": 1331,
      "Ġstand": 1332,
      "ĠOr": 1333,
      "Ġhuman": 1334,
      "gen": 1335,
      "ĠWhat": 1336,
      "Ġrest": 1337,
      "Ġcond": 1338,
      "Ġbeh": 1339,
      "Ġreport": 1340,
      "ior": 1341,
      "iness": 1342,
      "Ġtreat": 1343,
      "veral": 1344,
      "ĠPl": 1345,
      "ential": 1346,
      "son": 1347,
      "ĠThese": 1348,
      "Ġallow": 1349,
      "Ġequ": 1350,
      "ĠCan": 1351,
      "put": 1352,
      "eral": 1353,
      "ertain": 1354,
      "Ġunt": 1355,
      "de": 1356,
      "Ġlight": 1357,
      "----": 1358,
      "Ġstre": 1359,
      "Ġdesc": 1360,
      "Ġvis": 1361,
      "min": 1362,
      "Ġfew": 1363,
      "Ġturn": 1364,
      "()": 1365,
      "ries": 1366,
      "Ġhome": 1367,
      "angu": 1368,
      "Ġhere": 1369,
      "ised": 1370,
      "Ġlarge": 1371,
      "ccess": 1372,
      "ling": 1373,
      "ĠStates": 1374,
      "Ġfour": 1375,
      "Ġwant": 1376,
      "Ġcell": 1377,
      "iven": 1378,
      "Ġris": 1379,
      "uro": 1380,
      "hers": 1381,
      "Ġnear": 1382,
      "Ġtem": 1383,
      "ording": 1384,
      "ection": 1385,
      "sc": 1386,
      "Ġwar": 1387,
      "Ġ17": 1388,
      "Ġappro": 1389,
      "oint": 1390,
      "Ġoper": 1391,
      "Ġcome": 1392,
      "be": 1393,
      "ator": 1394,
      "Ġwithin": 1395,
      "Ġbre": 1396,
      "ĠJoh": 1397,
      "Ġ15": 1398,
      "erest": 1399,
      "inc": 1400,
      "ption": 1401,
      "ina": 1402,
      "Ġdon": 1403,
      "Ġsing": 1404,
      "Ġorig": 1405,
      "Ġinc": 1406,
      "Ġlaw": 1407,
      "Ġterm": 1408,
      "Ġprof": 1409,
      "ajor": 1410,
      "18": 1411,
      "vironment": 1412,
      "Ġtoo": 1413,
      "ffic": 1414,
      "iod": 1415,
      "ified": 1416,
      "Ġpri": 1417,
      "Ġpos": 1418,
      "Ġfin": 1419,
      "Ġresearch": 1420,
      "Ġdise": 1421,
      "ethod": 1422,
      "ization": 1423,
      "ĠAll": 1424,
      "ĠRes": 1425,
      "Ġrun": 1426,
      "gin": 1427,
      "ats": 1428,
      "Ġarea": 1429,
      "ways": 1430,
      "conom": 1431,
      "Ġeng": 1432,
      "Ġredu": 1433,
      "Ġcap": 1434,
      "ĠMr": 1435,
      "Ġlater": 1436,
      "Ġbelie": 1437,
      "ley": 1438,
      "ograph": 1439,
      "Ġeduc": 1440,
      "Ġexample": 1441,
      "ik": 1442,
      "Ġuntil": 1443,
      "Ġele": 1444,
      "ission": 1445,
      "||": 1446,
      "Ġlist": 1447,
      "Ġnever": 1448,
      "ration": 1449,
      "ĠHowever": 1450,
      "Ġplan": 1451,
      "Ġearly": 1452,
      "ĠBl": 1453,
      "ination": 1454,
      "Ġeas": 1455,
      "Ġmar": 1456,
      "ids": 1457,
      "Ġsince": 1458,
      "ĠTe": 1459,
      "Ġbest": 1460,
      "Ġseveral": 1461,
      "Ġmil": 1462,
      "que": 1463,
      "atic": 1464,
      "ended": 1465,
      "Ġide": 1466,
      "ently": 1467,
      "ively": 1468,
      "Ġcame": 1469,
      "une": 1470,
      "ĠJohn": 1471,
      "Ġleg": 1472,
      "Ġchang": 1473,
      "ĠWor": 1474,
      "mb": 1475,
      "med": 1476,
      "arent": 1477,
      "Ġquest": 1478,
      "Ġlet": 1479,
      "here": 1480,
      "ĠNational": 1481,
      "ĠSo": 1482,
      "app": 1483,
      "Ġpract": 1484,
      "ĠBrit": 1485,
      "Ġfamily": 1486,
      "Ġes": 1487,
      "Ġopp": 1488,
      "rue": 1489,
      "Ġ196": 1490,
      "Ġfore": 1491,
      "ergy": 1492,
      "me": 1493,
      "Ġwomen": 1494,
      "oad": 1495,
      "Ġdel": 1496,
      "ards": 1497,
      "Ġbas": 1498,
      "rodu": 1499,
      "Ġseem": 1500,
      "sh": 1501,
      "ĠMar": 1502,
      "Ġbus": 1503,
      "aterial": 1504,
      "oms": 1505,
      "Ġperform": 1506,
      "ĠGod": 1507,
      "Ġey": 1508,
      "Ġamong": 1509,
      "ource": 1510,
      "illion": 1511,
      "Ġyoung": 1512,
      "Ġ12": 1513,
      "view": 1514,
      "tt": 1515,
      "Ġrele": 1516,
      "Ġinterest": 1517,
      "Ġbir": 1518,
      "Ġ16": 1519,
      "uthor": 1520,
      "Ġrece": 1521,
      "Ġgovernment": 1522,
      "Ġmark": 1523,
      "by": 1524,
      "ividual": 1525,
      "co": 1526,
      "agn": 1527,
      "Ġunderstand": 1528,
      "Ġtre": 1529,
      "ĠChrist": 1530,
      "sy": 1531,
      "Ġproject": 1532,
      "Ġdeath": 1533,
      "Ġcaus": 1534,
      "Ġiss": 1535,
      "atch": 1536,
      "Ġsw": 1537,
      "ek": 1538,
      "ources": 1539,
      "\"\"": 1540,
      "Ġche": 1541,
      "Ġorder": 1542,
      "cing": 1543,
      "ither": 1544,
      "ention": 1545,
      "augh": 1546,
      "Ġcountry": 1547,
      "Ġput": 1548,
      "Ġbecame": 1549,
      "ental": 1550,
      "ining": 1551,
      "ths": 1552,
      "ape": 1553,
      "lex": 1554,
      "work": 1555,
      "riend": 1556,
      "mber": 1557,
      "ĠOne": 1558,
      "Ġleft": 1559,
      "Ġchange": 1560,
      "Ġ+": 1561,
      "ember": 1562,
      "ided": 1563,
      "Ġtyp": 1564,
      "ify": 1565,
      "Ġpain": 1566,
      "lu": 1567,
      "Ġestab": 1568,
      "Ġtop": 1569,
      "ott": 1570,
      "line": 1571,
      "ris": 1572,
      "Ġbetter": 1573,
      "Ġinclude": 1574,
      "aster": 1575,
      "ope": 1576,
      "12": 1577,
      "Ġmajor": 1578,
      "Ġproper": 1579,
      "Ġteam": 1580,
      "Ġsit": 1581,
      "Ġdevelopment": 1582,
      "iver": 1583,
      "Ġfre": 1584,
      "ternal": 1585,
      "Ġbecome": 1586,
      "itive": 1587,
      "Ġreal": 1588,
      "ĠTr": 1589,
      "ote": 1590,
      "Ġthings": 1591,
      "eg": 1592,
      "Ġfollowing": 1593,
      "ĠCar": 1594,
      "Ġmove": 1595,
      "Ġdev": 1596,
      "ung": 1597,
      "irc": 1598,
      "ring": 1599,
      "Ġlow": 1600,
      "Ġrecord": 1601,
      "Ġant": 1602,
      "Ġaway": 1603,
      "Ġident": 1604,
      "Ġhistory": 1605,
      "Ġhapp": 1606,
      "Ġgra": 1607,
      "ĠCent": 1608,
      "Ġphys": 1609,
      "though": 1610,
      "Ġindividual": 1611,
      "atural": 1612,
      "Ġhouse": 1613,
      "ĠEuro": 1614,
      "Ġalong": 1615,
      "200": 1616,
      "Ġkeep": 1617,
      "Ġcurrent": 1618,
      "Ġmaterial": 1619,
      "ane": 1620,
      "Ġsuccess": 1621,
      "sw": 1622,
      "ĠComm": 1623,
      "ĠAfter": 1624,
      "Ġproduct": 1625,
      "Ġcult": 1626,
      "\".": 1627,
      "Ġblood": 1628,
      "Ġet": 1629,
      "ole": 1630,
      "mp": 1631,
      "resent": 1632,
      "ĠGerm": 1633,
      "Ġhy": 1634,
      "ER": 1635,
      "Ġmean": 1636,
      "alf": 1637,
      "ball": 1638,
      "Ġlangu": 1639,
      "ĠWar": 1640,
      "Ġline": 1641,
      "ological": 1642,
      "aken": 1643,
      "Ġanim": 1644,
      "idd": 1645,
      "por": 1646,
      "ĠWorld": 1647,
      "Ġlab": 1648,
      "ument": 1649,
      "ples": 1650,
      "Ġperiod": 1651,
      "enn": 1652,
      "Ġmeas": 1653,
      "Ġlearn": 1654,
      "Ġsocial": 1655,
      "Ġdra": 1656,
      "ps": 1657,
      "ances": 1658,
      "Ġask": 1659,
      "ĠGe": 1660,
      "my": 1661,
      "iter": 1662,
      "fic": 1663,
      "ably": 1664,
      "imate": 1665,
      "Ġfield": 1666,
      "Ġside": 1667,
      "Ġstat": 1668,
      "Ġpolit": 1669,
      "Ġimpro": 1670,
      "ĠEurope": 1671,
      "ability": 1672,
      "Ġheart": 1673,
      "Ġfac": 1674,
      "Ġenergy": 1675,
      "ox": 1676,
      "Ġshort": 1677,
      "Ġmethod": 1678,
      "ĠWith": 1679,
      "ills": 1680,
      "Ġparticular": 1681,
      "Ġcontrol": 1682,
      "sel": 1683,
      "Ġgiven": 1684,
      "ĠNo": 1685,
      "ories": 1686,
      "aps": 1687,
      "Ġenvironment": 1688,
      "Ġbased": 1689,
      "ferences": 1690,
      "Ġmov": 1691,
      "Ġlim": 1692,
      "name": 1693,
      "ured": 1694,
      "ec": 1695,
      "Ġobject": 1696,
      "Ġtimes": 1697,
      "Ġspecies": 1698,
      "50": 1699,
      "ones": 1700,
      "ober": 1701,
      "ĠAust": 1702,
      "ternational": 1703,
      "Ġve": 1704,
      "Ã©": 1705,
      "Ġaddition": 1706,
      "Ġcertain": 1707,
      "Ġmeans": 1708,
      "Ġpot": 1709,
      "eter": 1710,
      "wards": 1711,
      "idence": 1712,
      "ware": 1713,
      "hern": 1714,
      "not": 1715,
      "ĠAf": 1716,
      "Ġnon": 1717,
      "Ġothers": 1718,
      "Ġprom": 1719,
      "urther": 1720,
      "Ġcase": 1721,
      "ĠEnglish": 1722,
      "Ġeconom": 1723,
      "ĠPr": 1724,
      "ĠSy": 1725,
      "of": 1726,
      "ued": 1727,
      "ilt": 1728,
      "osp": 1729,
      "urch": 1730,
      "ead": 1731,
      "Ġlarg": 1732,
      "Ġoccur": 1733,
      "icle": 1734,
      "Ġfeel": 1735,
      "Ġpost": 1736,
      "ĠBy": 1737,
      "ĠHis": 1738,
      "Ġ194": 1739,
      "ilar": 1740,
      "Ġdays": 1741,
      "ogn": 1742,
      "Ġlocal": 1743,
      "Ġhard": 1744,
      "Ġhig": 1745,
      "Ġinvol": 1746,
      ".]": 1747,
      "ĠMay": 1748,
      "ething": 1749,
      "ged": 1750,
      "Ġpossible": 1751,
      "pecial": 1752,
      "Ġavail": 1753,
      "Ġanal": 1754,
      "Ġdisease": 1755,
      "af": 1756,
      "inks": 1757,
      "hing": 1758,
      "Ġview": 1759,
      "stit": 1760,
      "arc": 1761,
      "Ġtook": 1762,
      "11": 1763,
      "Ġtype": 1764,
      "ploy": 1765,
      "ĠMed": 1766,
      "most": 1767,
      "Ġfar": 1768,
      "Ġ:": 1769,
      "ots": 1770,
      "eb": 1771,
      "Ġcity": 1772,
      "))": 1773,
      "ĠâĢĶ": 1774,
      "rict": 1775,
      "ĠUS": 1776,
      "Ġbene": 1777,
      "Ġcal": 1778,
      "Ġalways": 1779,
      "],": 1780,
      "Ġsays": 1781,
      "Ġnext": 1782,
      "ask": 1783,
      "ored": 1784,
      "pos": 1785,
      "lement": 1786,
      "aim": 1787,
      "Ġshall": 1788,
      "ĠAb": 1789,
      "rid": 1790,
      "oph": 1791,
      "Ġfriend": 1792,
      "ours": 1793,
      "olution": 1794,
      "Ġlik": 1795,
      "Ġvol": 1796,
      "Ġcause": 1797,
      "Ġthought": 1798,
      "ont": 1799,
      "Ġcentury": 1800,
      "ĠMan": 1801,
      "Ġable": 1802,
      "Ġcharacter": 1803,
      "Ġage": 1804,
      "('": 1805,
      "Ġoffic": 1806,
      "ĠSouth": 1807,
      "Ġhaving": 1808,
      "ĠGo": 1809,
      "ression": 1810,
      "Ġgive": 1811,
      "ĠMus": 1812,
      "Ġtrad": 1813,
      "ĠEar": 1814,
      "ĠThat": 1815,
      "aper": 1816,
      "ctor": 1817,
      "Ġauthor": 1818,
      "Ġbegan": 1819,
      "ird": 1820,
      "ĠEn": 1821,
      "Ġwent": 1822,
      "Ġsaf": 1823,
      "ĠSome": 1824,
      "####": 1825,
      "cur": 1826,
      "Ġdue": 1827,
      "Ġconn": 1828,
      "ror": 1829,
      "ĠX": 1830,
      "Ġcr": 1831,
      "str": 1832,
      "amed": 1833,
      "ĠHist": 1834,
      "thing": 1835,
      "Ġrisk": 1836,
      "wh": 1837,
      "Ġkind": 1838,
      "Ġobs": 1839,
      "Ġhowever": 1840,
      "Ġ14": 1841,
      "ients": 1842,
      "over": 1843,
      "Ġrad": 1844,
      "rown": 1845,
      "Ġsomething": 1846,
      ".)": 1847,
      "yn": 1848,
      "ĠCal": 1849,
      "Ġareas": 1850,
      "ister": 1851,
      "Ġbi": 1852,
      "Ġmult": 1853,
      "vious": 1854,
      "Ġdr": 1855,
      "ĠSee": 1856,
      "ales": 1857,
      "ened": 1858,
      "Ġcost": 1859,
      "==": 1860,
      "ĠYork": 1861,
      "ĠNorth": 1862,
      "Ġprovide": 1863,
      "Ġhimself": 1864,
      "Ġplac": 1865,
      "Ġ13": 1866,
      "ches": 1867,
      "':": 1868,
      "ourn": 1869,
      "Ġfull": 1870,
      "rap": 1871,
      "Ġaffect": 1872,
      "aring": 1873,
      "ribut": 1874,
      "Ġstruct": 1875,
      "ĠAm": 1876,
      "aining": 1877,
      "aut": 1878,
      "Ġcourse": 1879,
      "ai": 1880,
      "Ġonce": 1881,
      "ĠSchool": 1882,
      "gether": 1883,
      "Ġtogether": 1884,
      "ĠBritish": 1885,
      "Ġscient": 1886,
      "Ġpress": 1887,
      "oid": 1888,
      "Ġ*": 1889,
      "Ġla": 1890,
      "Ġsignific": 1891,
      "ĠKing": 1892,
      "Ġrepl": 1893,
      "ending": 1894,
      "Ġpercent": 1895,
      "Ġdescrib": 1896,
      "Ġwords": 1897,
      "Ġ$": 1898,
      "Ġavailable": 1899,
      "ĠPar": 1900,
      "Ġmaking": 1901,
      "16": 1902,
      "cle": 1903,
      "oney": 1904,
      "Ġassoci": 1905,
      "Ġann": 1906,
      "ae": 1907,
      "Ġplant": 1908,
      "Ġtry": 1909,
      "Ġtell": 1910,
      "pro": 1911,
      "Ġer": 1912,
      "ĠPol": 1913,
      "Ġmind": 1914,
      "Ġwind": 1915,
      "yl": 1916,
      "ray": 1917,
      "Ġbusiness": 1918,
      "Ġfree": 1919,
      "Ġseen": 1920,
      "ww": 1921,
      "Ġabove": 1922,
      "Ġdri": 1923,
      "ched": 1924,
      "for": 1925,
      "face": 1926,
      "Ġgoing": 1927,
      "Ġ\"\"\"": 1928,
      "ĠPe": 1929,
      "17": 1930,
      "15": 1931,
      "Ġcirc": 1932,
      "ĠGen": 1933,
      "Ġflow": 1934,
      "side": 1935,
      "ison": 1936,
      "Ġcomb": 1937,
      "selves": 1938,
      "ruction": 1939,
      "Ġcreat": 1940,
      "Ġstrong": 1941,
      "Ġdem": 1942,
      "Ġsum": 1943,
      "ĠAfric": 1944,
      "Ġnatural": 1945,
      "Ġexist": 1946,
      "ams": 1947,
      "Ġpopulation": 1948,
      "Ġsent": 1949,
      "Ġill": 1950,
      "ĠEd": 1951,
      "che": 1952,
      "Ġfoot": 1953,
      "Ġenough": 1954,
      "Ġwin": 1955,
      "Ġever": 1956,
      "Ġgeneral": 1957,
      "Ġsugg": 1958,
      "Ġsuggest": 1959,
      "Ġaccess": 1960,
      "Ġcolle": 1961,
      "erc": 1962,
      "Ġleast": 1963,
      "ret": 1964,
      "Ġbegin": 1965,
      "Ġprofess": 1966,
      "ĠFl": 1967,
      "ĠCount": 1968,
      "Ġpast": 1969,
      "ublic": 1970,
      "ĠGu": 1971,
      "amb": 1972,
      "Ġsingle": 1973,
      "rad": 1974,
      "Ġspecial": 1975,
      "13": 1976,
      "fer": 1977,
      "oon": 1978,
      "ators": 1979,
      "Ġtri": 1980,
      "ement": 1981,
      "rie": 1982,
      "ĠReferences": 1983,
      "Ġlanguage": 1984,
      "Ġdone": 1985,
      "Ġz": 1986,
      "Ġfive": 1987,
      "ĠCanad": 1988,
      "Ġprevent": 1989,
      "Ġground": 1990,
      "ĠNe": 1991,
      "reg": 1992,
      "Ġindust": 1993,
      "Ġcrit": 1994,
      "Ġvir": 1995,
      "Ġenc": 1996,
      "Ġhalf": 1997,
      "Ġsimilar": 1998,
      "Ġaut": 1999,
      "ledge": 2000,
      "Ġdeterm": 2001,
      "atory": 2002,
      "aves": 2003,
      "ney": 2004,
      "Ġvarious": 2005,
      "oice": 2006,
      "ficult": 2007,
      "uture": 2008,
      "Ġnight": 2009,
      "Ġfunction": 2010,
      "Ġseries": 2011,
      "ocus": 2012,
      "Ġtext": 2013,
      "Ġri": 2014,
      "ule": 2015,
      "ference": 2016,
      "ler": 2017,
      "Ġfall": 2018,
      "Ġmodel": 2019,
      "Ġrepresent": 2020,
      "ortun": 2021,
      "?âĢĿ": 2022,
      "rand": 2023,
      "Ġword": 2024,
      "14": 2025,
      "Ġmembers": 2026,
      "Ġacross": 2027,
      "Ġlearning": 2028,
      "ipp": 2029,
      "ony": 2030,
      "Ġport": 2031,
      "Ġevent": 2032,
      "ected": 2033,
      "Ġmillion": 2034,
      "ĠAustral": 2035,
      "iting": 2036,
      "set": 2037,
      "Ġyet": 2038,
      "Ġexam": 2039,
      "Ġsubject": 2040,
      "now": 2041,
      "ger": 2042,
      "Ġmot": 2043,
      "Ġcommunity": 2044,
      "Ġinvest": 2045,
      "Ġmor": 2046,
      "iation": 2047,
      "Ġarg": 2048,
      "Ġ{": 2049,
      "illed": 2050,
      "Ġrather": 2051,
      "overed": 2052,
      "Ġvalue": 2053,
      "ĠRep": 2054,
      "Ġprint": 2055,
      "Ġeducation": 2056,
      "ĠII": 2057,
      "acy": 2058,
      "Ġtreatment": 2059,
      "Ġblack": 2060,
      "Ġdifficult": 2061,
      "Ġworks": 2062,
      "Ġvers": 2063,
      "Ġmusic": 2064,
      "Ġusually": 2065,
      "Ġkey": 2066,
      "Ġclear": 2067,
      "ĠWill": 2068,
      "Ġ30": 2069,
      "ges": 2070,
      "ster": 2071,
      "NA": 2072,
      "ĠAss": 2073,
      "pecially": 2074,
      "Ġamount": 2075,
      "Ġansw": 2076,
      "Ġelse": 2077,
      "ze": 2078,
      "Ġsignificant": 2079,
      "iol": 2080,
      "Ġtaken": 2081,
      "agement": 2082,
      "Ġnecess": 2083,
      "Ġspace": 2084,
      "reen": 2085,
      "Ġcomput": 2086,
      "ude": 2087,
      "//": 2088,
      "Ġprim": 2089,
      "alt": 2090,
      "Ġhold": 2091,
      "Ġresults": 2092,
      "ma": 2093,
      "duct": 2094,
      "Ġexpect": 2095,
      "Ġproblem": 2096,
      "Ġrange": 2097,
      "itor": 2098,
      "ĠState": 2099,
      "30": 2100,
      "ication": 2101,
      "Ġwhite": 2102,
      "Ġeither": 2103,
      "ready": 2104,
      "Ġlay": 2105,
      "uck": 2106,
      "Ġdest": 2107,
      "Ġface": 2108,
      "Ġtown": 2109,
      "Ġparent": 2110,
      "atures": 2111,
      "Ġimm": 2112,
      "ateg": 2113,
      "itary": 2114,
      "omm": 2115,
      "Ġter": 2116,
      "ĠHar": 2117,
      "Ġnational": 2118,
      "ief": 2119,
      "Ġproblems": 2120,
      "ĠĠĠĠĠččĊ": 2121,
      "')": 2122,
      "ification": 2123,
      "Ġwhole": 2124,
      "Ġsat": 2125,
      "Ġi": 2126,
      "ĠJan": 2127,
      "asing": 2128,
      "ese": 2129,
      "...": 2130,
      "ES": 2131,
      "Ġseason": 2132,
      "Ġreason": 2133,
      "ĠCo": 2134,
      "Ġsix": 2135,
      "rench": 2136,
      "ump": 2137,
      "Ġinflu": 2138,
      "ĠWhile": 2139,
      "Ġnet": 2140,
      "Ġsound": 2141,
      "ency": 2142,
      "umb": 2143,
      "ĠSoc": 2144,
      "Ġred": 2145,
      "etic": 2146,
      "ils": 2147,
      "Ġfurther": 2148,
      "ĠSu": 2149,
      "Ġlinks": 2150,
      "ls": 2151,
      "ivil": 2152,
      "ront": 2153,
      "Ġaccount": 2154,
      "Ġstory": 2155,
      "Ġ195": 2156,
      "Ġlevels": 2157,
      "Ġfather": 2158,
      "sp": 2159,
      "etimes": 2160,
      "ilities": 2161,
      "Ġwhy": 2162,
      "empt": 2163,
      "cul": 2164,
      "ands": 2165,
      "Ġlive": 2166,
      "(\"": 2167,
      "Ġfocus": 2168,
      "fact": 2169,
      "Ġlikely": 2170,
      "Ġsystems": 2171,
      "ites": 2172,
      "Ġcells": 2173,
      "ee": 2174,
      "Ġess": 2175,
      "Ġprop": 2176,
      "Ġ--": 2177,
      "ush": 2178,
      "uation": 2179,
      "Ġx": 2180,
      "Ġwhether": 2181,
      "aching": 2182,
      "Ġabs": 2183,
      "Ġconsider": 2184,
      "IN": 2185,
      "ips": 2186,
      "Ġstep": 2187,
      "AS": 2188,
      "epend": 2189,
      "Ġsuper": 2190,
      "ius": 2191,
      "Ġattack": 2192,
      "attle": 2193,
      "ellow": 2194,
      "ĠJu": 2195,
      "Ġmeet": 2196,
      "Ġtemper": 2197,
      "Ġalmost": 2198,
      "istic": 2199,
      "atter": 2200,
      "Ġcreate": 2201,
      "key": 2202,
      "Ġalready": 2203,
      "oman": 2204,
      "ume": 2205,
      "ĠBar": 2206,
      "ĠMin": 2207,
      "Ġinit": 2208,
      "ĠReg": 2209,
      "Ġsure": 2210,
      "ique": 2211,
      "ĠDr": 2212,
      "elt": 2213,
      "org": 2214,
      "AR": 2215,
      "Ġple": 2216,
      "Ġbuilding": 2217,
      "ights": 2218,
      "OR": 2219,
      "ĠStud": 2220,
      "ĠDo": 2221,
      "eds": 2222,
      "Ġappear": 2223,
      "Ġrole": 2224,
      "ĠAug": 2225,
      "sequ": 2226,
      "Ġfire": 2227,
      "Ġur": 2228,
      "ĠMe": 2229,
      "Ġespecially": 2230,
      "Ġver": 2231,
      "Ġcamp": 2232,
      "Ġcountries": 2233,
      "ires": 2234,
      "Ġfail": 2235,
      "Ġworking": 2236,
      "ague": 2237,
      "Ġincrease": 2238,
      "Ġbehav": 2239,
      "AT": 2240,
      "Ġfuture": 2241,
      "\")": 2242,
      "Ġsaw": 2243,
      "Ġpublished": 2244,
      "Ġbig": 2245,
      "mpt": 2246,
      "ĠFran": 2247,
      "Ġpred": 2248,
      "dom": 2249,
      "Ġthing": 2250,
      "Ġteac": 2251,
      "rug": 2252,
      "Ġ11": 2253,
      "Ġtot": 2254,
      "rew": 2255,
      "ĠAct": 2256,
      "ament": 2257,
      "Ġhigher": 2258,
      "Ġheav": 2259,
      "Ġopt": 2260,
      "Ġdam": 2261,
      "Ġfilm": 2262,
      "onse": 2263,
      "ĠNot": 2264,
      "uary": 2265,
      "Ġsite": 2266,
      "Ġthemselves": 2267,
      "Ġheld": 2268,
      "Ġdeg": 2269,
      "obal": 2270,
      "Ġsens": 2271,
      "Ġeyes": 2272,
      "icy": 2273,
      "Ġcompany": 2274,
      "aff": 2275,
      "apan": 2276,
      "Ġrelations": 2277,
      "Ġsil": 2278,
      "ĠAcc": 2279,
      "22": 2280,
      "Ġobserv": 2281,
      "Ġproduction": 2282,
      "rought": 2283,
      "Ġsun": 2284,
      "Ġquestion": 2285,
      "ĠAmerica": 2286,
      "ault": 2287,
      "Ġdiscuss": 2288,
      "Ġep": 2289,
      "ON": 2290,
      "ops": 2291,
      "estern": 2292,
      "Ġrespons": 2293,
      "Ġconditions": 2294,
      "Ġservice": 2295,
      "Ġexperience": 2296,
      "Ġtoday": 2297,
      "Ġapplic": 2298,
      "ĠPer": 2299,
      "Ġbuilt": 2300,
      "ising": 2301,
      "Ġeff": 2302,
      "Ġdom": 2303,
      "Ġformer": 2304,
      "Ġemploy": 2305,
      "Ġchanges": 2306,
      "add": 2307,
      "Ġmother": 2308,
      "['": 2309,
      "ached": 2310,
      "oura": 2311,
      "://": 2312,
      "oll": 2313,
      "Ġintrodu": 2314,
      "Ġcut": 2315,
      "yle": 2316,
      "Ġcomplet": 2317,
      "right": 2318,
      "Ġgame": 2319,
      "Ġimpact": 2320,
      "Ġspecific": 2321,
      "Ġgroups": 2322,
      "Ġrelig": 2323,
      "Ġbenef": 2324,
      "Ġconsidered": 2325,
      "Ġpotential": 2326,
      "Ġlower": 2327,
      "iction": 2328,
      "artment": 2329,
      "Ġprob": 2330,
      "Ġloss": 2331,
      "ham": 2332,
      "Ġ2006": 2333,
      "Ġrecogn": 2334,
      "ressed": 2335,
      "ĠMarch": 2336,
      "leep": 2337,
      "roll": 2338,
      "Ġlog": 2339,
      "Ġexc": 2340,
      "ĠHer": 2341,
      "itted": 2342,
      "Ġconcer": 2343,
      "ival": 2344,
      "aged": 2345,
      "verage": 2346,
      "Th": 2347,
      "Ġwon": 2348,
      "ĠFrench": 2349,
      "chie": 2350,
      "omes": 2351,
      "ĠQu": 2352,
      "Ġled": 2353,
      "Ġcreated": 2354,
      "Ġcases": 2355,
      "Ġmoney": 2356,
      "Ġbrain": 2357,
      "ĠDes": 2358,
      "Ġarch": 2359,
      "Ġdeveloped": 2360,
      "den": 2361,
      "Ġitself": 2362,
      "ables": 2363,
      "Ġbar": 2364,
      "Ġengine": 2365,
      "adem": 2366,
      "Ġtechnology": 2367,
      "Ġdeb": 2368,
      "Ġlove": 2369,
      "Ġmass": 2370,
      "ĠDep": 2371,
      "Ġrequire": 2372,
      "Ġdecl": 2373,
      "ĠAugust": 2374,
      "ĠOct": 2375,
      "iam": 2376,
      "Ġhistor": 2377,
      "ĠJapan": 2378,
      "Ġ25": 2379,
      "Ġcancer": 2380,
      "Ġfund": 2381,
      "ĠCont": 2382,
      "Ġknowledge": 2383,
      "Ġcannot": 2384,
      "ĠWest": 2385,
      "ibr": 2386,
      "Ġ(?": 2387,
      "Ġaccording": 2388,
      "Ġnorm": 2389,
      "iple": 2390,
      "Ġreally": 2391,
      "lete": 2392,
      "']": 2393,
      "Ġson": 2394,
      "ript": 2395,
      "ging": 2396,
      "Ġmakes": 2397,
      "ĠChar": 2398,
      "Ġpay": 2399,
      "Ġscience": 2400,
      "Ġste": 2401,
      "oor": 2402,
      "ĠPres": 2403,
      "ysis": 2404,
      "Ġnature": 2405,
      "raft": 2406,
      "Ġsong": 2407,
      "Ġdou": 2408,
      "Ġtalk": 2409,
      "Ġlo": 2410,
      "Ġsett": 2411,
      "Ġweek": 2412,
      "Ġpriv": 2413,
      "iddle": 2414,
      "Ġneg": 2415,
      "ille": 2416,
      "Ġpath": 2417,
      "bo": 2418,
      "ournal": 2419,
      "ĠMy": 2420,
      "bum": 2421,
      "pril": 2422,
      "ĠComp": 2423,
      "Ġchem": 2424,
      "Ġbelow": 2425,
      "Ġneeds": 2426,
      "Ġtradition": 2427,
      "Ġ==": 2428,
      "Ġindic": 2429,
      "lected": 2430,
      "Ġeffort": 2431,
      "Ġgot": 2432,
      "rel": 2433,
      "Ġĉ": 2434,
      "ĠJune": 2435,
      "Ġoriginal": 2436,
      "lev": 2437,
      "isc": 2438,
      "Ġpolitical": 2439,
      "Ġstudies": 2440,
      "path": 2441,
      "Ġposition": 2442,
      "ography": 2443,
      "Ġeffects": 2444,
      "Ġestablished": 2445,
      "ibility": 2446,
      "rect": 2447,
      "Ġaff": 2448,
      "ĠPart": 2449,
      "Ġplants": 2450,
      "Ġentire": 2451,
      "199": 2452,
      "ĠJew": 2453,
      "Ġ,": 2454,
      "ĠIm": 2455,
      "Ġways": 2456,
      "fully": 2457,
      "ades": 2458,
      "Ġsize": 2459,
      "aul": 2460,
      "ĠSept": 2461,
      "Ġsoon": 2462,
      "uel": 2463,
      "Ġphot": 2464,
      "Ġhor": 2465,
      "Ġliving": 2466,
      "ĠSw": 2467,
      "Ġimprove": 2468,
      "ĠThen": 2469,
      "sych": 2470,
      "Ġfrequ": 2471,
      "opy": 2472,
      "Ġsuff": 2473,
      "ĠHistory": 2474,
      "ols": 2475,
      "lands": 2476,
      "ĠFrom": 2477,
      "Ġclaim": 2478,
      "ĠEl": 2479,
      "rem": 2480,
      "Ġlate": 2481,
      "Ġsoft": 2482,
      "ĠCity": 2483,
      "Ġcy": 2484,
      "ĠHealth": 2485,
      "Ġdifferen": 2486,
      "ĠĠĠĠĠĠĠĠĠĠĠĠĠĠĠĠĠĠĠ": 2487,
      "iment": 2488,
      "Ġparticip": 2489,
      "Ġ193": 2490,
      "bon": 2491,
      "Ġfig": 2492,
      "na": 2493,
      "ĠDav": 2494,
      "Ġpaper": 2495,
      "aving": 2496,
      "ĠGl": 2497,
      "Ġsepar": 2498,
      "Ġsource": 2499,
      "Ġexcept": 2500,
      "use": 2501,
      "Ġprevious": 2502,
      "hib": 2503,
      "Ġquick": 2504,
      "Ġdoc": 2505,
      "Ġsold": 2506,
      "Ġmodern": 2507,
      "Ġut": 2508,
      "Ġorigin": 2509,
      "--------": 2510,
      "Ġstop": 2511,
      "ĠNone": 2512,
      "21": 2513,
      "ores": 2514,
      "ength": 2515,
      "iding": 2516,
      "Ġhands": 2517,
      "Ġ100": 2518,
      "In": 2519,
      "ening": 2520,
      "Ġresearc": 2521,
      "mptoms": 2522,
      "25": 2523,
      "ĠResear": 2524,
      "abit": 2525,
      "rance": 2526,
      "time": 2527,
      "ideo": 2528,
      "Ġcompet": 2529,
      "Ġrespect": 2530,
      "Ġsurface": 2531,
      "Ġconsum": 2532,
      "ĠApril": 2533,
      "Ġrequired": 2534,
      "Ġmonths": 2535,
      "inary": 2536,
      "Ġprotect": 2537,
      "Ġnothing": 2538,
      "Ġpopular": 2539,
      "ĠGerman": 2540,
      "Ġwritten": 2541,
      "erve": 2542,
      "Ġaction": 2543,
      "Ġrev": 2544,
      "Ġmom": 2545,
      "go": 2546,
      "cil": 2547,
      "Ġregion": 2548,
      "Ġdig": 2549,
      "Ġparts": 2550,
      "utes": 2551,
      "medi": 2552,
      "ĠJuly": 2553,
      "ĠHigh": 2554,
      "ends": 2555,
      "icro": 2556,
      "Wh": 2557,
      "ĠCounty": 2558,
      "Ġprinc": 2559,
      "ows": 2560,
      "Ġofficial": 2561,
      "Ġtotal": 2562,
      "Ġrate": 2563,
      "Ġmatter": 2564,
      "ĠMc": 2565,
      "ĠDuring": 2566,
      "head": 2567,
      "Ġpoor": 2568,
      "minist": 2569,
      "ift": 2570,
      "umn": 2571,
      "ington": 2572,
      "rated": 2573,
      "fficient": 2574,
      "ĠOther": 2575,
      "Ġpatients": 2576,
      "ĠExternal": 2577,
      "Ġtypes": 2578,
      "Ġachie": 2579,
      "ceed": 2580,
      "ctions": 2581,
      "vere": 2582,
      "Ġanc": 2583,
      "Ġidea": 2584,
      "Ġtit": 2585,
      "Ġ/": 2586,
      "ĠRuss": 2587,
      "cret": 2588,
      "Ġclose": 2589,
      "ana": 2590,
      "Ġcoll": 2591,
      "Ġphysical": 2592,
      "Ġfarm": 2593,
      "Ġdiv": 2594,
      "Ġbreak": 2595,
      "Ġrul": 2596,
      "Ġking": 2597,
      "hold": 2598,
      "Ġ24": 2599,
      "erson": 2600,
      "Ġreceived": 2601,
      "Ġstates": 2602,
      "ondon": 2603,
      "ĠColle": 2604,
      "ĠPhil": 2605,
      "Ġregard": 2606,
      "ensive": 2607,
      "erous": 2608,
      "St": 2609,
      "Ġjo": 2610,
      "Ġevidence": 2611,
      "ĠSeptember": 2612,
      "eed": 2613,
      "ety": 2614,
      "Ġtrue": 2615,
      "ID": 2616,
      "Ġearth": 2617,
      "ĠJanuary": 2618,
      "ike": 2619,
      "Ġdetail": 2620,
      "Ġservices": 2621,
      "usion": 2622,
      "Ġthird": 2623,
      "like": 2624,
      "\":": 2625,
      "Ġquite": 2626,
      "Ġroad": 2627,
      "men": 2628,
      "lying": 2629,
      "Ġattempt": 2630,
      "ming": 2631,
      "Ġproduced": 2632,
      "cies": 2633,
      "Ġincluded": 2634,
      "Ġtold": 2635,
      "ĠMany": 2636,
      "Ġactivities": 2637,
      "Ġpie": 2638,
      "Ġactivity": 2639,
      "ĠOctober": 2640,
      "bor": 2641,
      "Ġrights": 2642,
      "Ġ(?),": 2643,
      "Ġarticle": 2644,
      "ĠÂ": 2645,
      "cember": 2646,
      "Ġquality": 2647,
      "Ġmarket": 2648,
      "ĠAg": 2649,
      "Ġfr": 2650,
      "Ġcapt": 2651,
      "olic": 2652,
      "ĠCor": 2653,
      "Ġ2010": 2654,
      "Ġfeet": 2655,
      "ned": 2656,
      "alse": 2657,
      "._": 2658,
      "ĠEngland": 2659,
      "Ġasked": 2660,
      "utions": 2661,
      "Ġwoman": 2662,
      "aur": 2663,
      "Ġincreased": 2664,
      "ĠSm": 2665,
      "Ġfamil": 2666,
      "hel": 2667,
      "23": 2668,
      "ĠBo": 2669,
      "Ġwhose": 2670,
      "lam": 2671,
      "play": 2672,
      "abor": 2673,
      "ford": 2674,
      "ises": 2675,
      "Ġgrowth": 2676,
      "ĠTw": 2677,
      "Ġbrought": 2678,
      "Ġbring": 2679,
      "Ġfish": 2680,
      "Ġlonger": 2681,
      "ĠAc": 2682,
      "haps": 2683,
      "ĠArt": 2684,
      "ĠIndian": 2685,
      "Ġtaking": 2686,
      "EN": 2687,
      "Ġchall": 2688,
      "back": 2689,
      "Ġbur": 2690,
      "tain": 2691,
      "type": 2692,
      "hood": 2693,
      "chan": 2694,
      "Ġsometimes": 2695,
      "Ġnamed": 2696,
      "Ġwood": 2697,
      "ĠInstit": 2698,
      "Ġdeep": 2699,
      "!âĢĿ": 2700,
      "Ġlot": 2701,
      "Ġhost": 2702,
      "bl": 2703,
      "Ġconcept": 2704,
      "ovember": 2705,
      "Ġround": 2706,
      "Ġflu": 2707,
      "anced": 2708,
      "Ġviol": 2709,
      "Ġschools": 2710,
      "Ġens": 2711,
      "order": 2712,
      "ords": 2713,
      "Ġnorth": 2714,
      "ĠMost": 2715,
      "ĠÂłÂł": 2716,
      "osis": 2717,
      "Ġroom": 2718,
      "Ġthus": 2719,
      "Ġalbum": 2720,
      "ences": 2721,
      "Ġhon": 2722,
      "Ġrelated": 2723,
      "ĠCalif": 2724,
      "Ġcoun": 2725,
      "uk": 2726,
      "Ġdog": 2727,
      "Ġ50": 2728,
      "ulations": 2729,
      "Ġconduct": 2730,
      "Ġassociated": 2731,
      "ĠLondon": 2732,
      "Ġliter": 2733,
      "Ġcross": 2734,
      "Ġce": 2735,
      "ĠAlthough": 2736,
      "ino": 2737,
      "Ġwid": 2738,
      "Ġcommand": 2739,
      "Ġcompan": 2740,
      "Ġproducts": 2741,
      "Ġge": 2742,
      "AN": 2743,
      "It": 2744,
      "elling": 2745,
      "ĠKe": 2746,
      "ext": 2747,
      "aries": 2748,
      "Ġresources": 2749,
      "Ġhours": 2750,
      "Ġgreen": 2751,
      "Ġaccept": 2752,
      "data": 2753,
      "Ġrefer": 2754,
      "Ġstation": 2755,
      "Ġvill": 2756,
      "Ġwalk": 2757,
      "Ġspir": 2758,
      "ĠFeb": 2759,
      "rate": 2760,
      "iqu": 2761,
      "Ġreleased": 2762,
      "Ġlost": 2763,
      "Ġsimple": 2764,
      "Ġcomes": 2765,
      "ĠAnt": 2766,
      "Ġdrug": 2767,
      "Ġgave": 2768,
      "acc": 2769,
      "Ġpractice": 2770,
      "Ġsense": 2771,
      "undred": 2772,
      "icles": 2773,
      "Ġbelieve": 2774,
      "Ġspeak": 2775,
      "Ġcolor": 2776,
      "ivity": 2777,
      "Ġ21": 2778,
      "Ġsymptoms": 2779,
      "Ġ2011": 2780,
      "Ġcomplex": 2781,
      "amin": 2782,
      "ĠMore": 2783,
      "ply": 2784,
      "oke": 2785,
      "Ġcondition": 2786,
      "Ġthroughout": 2787,
      "fect": 2788,
      "Ġgir": 2789,
      "ĠDecember": 2790,
      "Ġmedical": 2791,
      "Ġstri": 2792,
      "ĠCaliforn": 2793,
      "Ġweight": 2794,
      "Ġnecessary": 2795,
      "Ġwild": 2796,
      "Ġ2005": 2797,
      "ender": 2798,
      "ĠIndia": 2799,
      "Ġwall": 2800,
      "ĠAccording": 2801,
      "Ġhtt": 2802,
      "Ġissues": 2803,
      "Ġforce": 2804,
      "Ġsea": 2805,
      "ĠInternational": 2806,
      "Ġfat": 2807,
      "Ġsqu": 2808,
      "Ġevents": 2809,
      "Ġbehind": 2810,
      "ĠEarth": 2811,
      "rick": 2812,
      "Ġanimals": 2813,
      "urg": 2814,
      "Ġmount": 2815,
      "uments": 2816,
      "ĠHol": 2817,
      "ederal": 2818,
      "Ġdied": 2819,
      "lin": 2820,
      "het": 2821,
      "Ġopportun": 2822,
      "itation": 2823,
      "Ġlocated": 2824,
      "Ġord": 2825,
      "itude": 2826,
      "Ġfem": 2827,
      "Ġinj": 2828,
      "uff": 2829,
      "Ġstarted": 2830,
      "ĠOf": 2831,
      "ĠPark": 2832,
      "ners": 2833,
      "Ġgrad": 2834,
      "Ġ2008": 2835,
      "Ġpressure": 2836,
      "ĠMon": 2837,
      "Ġrecomm": 2838,
      "Ġ2012": 2839,
      "ĠNovember": 2840,
      "Ġclimate": 2841,
      "aid": 2842,
      "Ġclos": 2843,
      "ban": 2844,
      "Ġ2007": 2845,
      "Ġslow": 2846,
      "ĠCalifornia": 2847,
      "eration": 2848,
      "aly": 2849,
      "ĠSch": 2850,
      "Ġneeded": 2851,
      "Ġprovided": 2852,
      "IS": 2853,
      "ym": 2854,
      "ĠNow": 2855,
      "Ġfav": 2856,
      "Ġcho": 2857,
      "curity": 2858,
      "ĠMiss": 2859,
      "Ġstudent": 2860,
      "Ġshows": 2861,
      "orthern": 2862,
      "Ġdraw": 2863,
      "Ġ2000": 2864,
      "plic": 2865,
      "iff": 2866,
      "Ġten": 2867,
      "Ġresponse": 2868,
      "Ġrelationship": 2869,
      "ests": 2870,
      "ruary": 2871,
      "Ġborn": 2872,
      "Ġbroad": 2873,
      "pose": 2874,
      "Ġdark": 2875,
      "Ġeconomic": 2876,
      "ĠHere": 2877,
      "Ġemb": 2878,
      "Ġ<": 2879,
      "oe": 2880,
      "ĠFirst": 2881,
      "ription": 2882,
      "Ġreading": 2883,
      "Ġquestions": 2884,
      "pre": 2885,
      "Ġ||": 2886,
      "ĠPre": 2887,
      "Ġactually": 2888,
      "ems": 2889,
      "omen": 2890,
      "Ġwriting": 2891,
      "Ġsouth": 2892,
      "Ġoil": 2893,
      "arget": 2894,
      "iber": 2895,
      "Ġsleep": 2896,
      "rim": 2897,
      "istance": 2898,
      "Ġplayed": 2899,
      "imately": 2900,
      "ĠRiver": 2901,
      "Ġreduce": 2902,
      "Ġnut": 2903,
      "Ġ2009": 2904,
      "Ġfront": 2905,
      "Ġmeasure": 2906,
      "duc": 2907,
      "Ġthous": 2908,
      "ĠVal": 2909,
      "Ġgas": 2910,
      "Ġterms": 2911,
      "Ġmilitary": 2912,
      "aging": 2913,
      "Ġjob": 2914,
      "vey": 2915,
      "Ġregular": 2916,
      "Ġfinal": 2917,
      "izing": 2918,
      "Ġpersonal": 2919,
      "Ġadded": 2920,
      "ara": 2921,
      "aint": 2922,
      "Ġlooking": 2923,
      "Ġplayers": 2924,
      "Ġindepend": 2925,
      "ĠEuropean": 2926,
      "cont": 2927,
      "Ġtraining": 2928,
      "Ġimage": 2929,
      "Ġcontent": 2930,
      "ha": 2931,
      "iences": 2932,
      "atives": 2933,
      "Ġhundred": 2934,
      "oved": 2935,
      "Ġadult": 2936,
      "ĠGree": 2937,
      "ports": 2938,
      "ground": 2939,
      "Ġreact": 2940,
      "24": 2941,
      "Ġlink": 2942,
      "ĠAng": 2943,
      "ĠSan": 2944,
      "Ġwa": 2945,
      "Ġmember": 2946,
      "arily": 2947,
      "Ġjud": 2948,
      "Ġproduce": 2949,
      "ĠInt": 2950,
      "ream": 2951,
      "Ġparents": 2952,
      "Ġcheck": 2953,
      "unt": 2954,
      "Ġmess": 2955,
      "Ġskin": 2956,
      "Ġresearchers": 2957,
      "cks": 2958,
      "Ġmoment": 2959,
      "ustom": 2960,
      "Ġcaused": 2961,
      "Ġability": 2962,
      "Ġ)": 2963,
      "Ġcat": 2964,
      "ari": 2965,
      "oles": 2966,
      "Ġemer": 2967,
      "Ġglobal": 2968,
      "ĠResearch": 2969,
      "based": 2970,
      "mit": 2971,
      "mod": 2972,
      "asc": 2973,
      "Ġincludes": 2974,
      "Ġetc": 2975,
      "Ġwhom": 2976,
      "Ġprovides": 2977,
      "Ġsurv": 2978,
      "ĠFebruary": 2979,
      "Ġoutside": 2980,
      "Ġexerc": 2981,
      "ĠEm": 2982,
      "pper": 2983,
      "Ġstructure": 2984,
      "Ġmanagement": 2985,
      "iles": 2986,
      "iers": 2987,
      "Ġestablish": 2988,
      "Ġbooks": 2989,
      "Ġbase": 2990,
      "Ġsociety": 2991,
      "Ġmach": 2992,
      "Ġalthough": 2993,
      "orge": 2994,
      "Ġreported": 2995,
      "ĠChurch": 2996,
      "ĠEast": 2997,
      "oul": 2998,
      "Ġaddress": 2999,
      "Ġpict": 3000,
      "ĠChristian": 3001,
      "Ġunderstanding": 3002,
      "Ġdiet": 3003,
      "rest": 3004,
      "ĠRoman": 3005,
      "Ġwebs": 3006,
      "light": 3007,
      "field": 3008,
      "ĠApp": 3009,
      "Ġinternational": 3010,
      "Ġdesigned": 3011,
      "born": 3012,
      "eum": 3013,
      "Ġsex": 3014,
      "Ġlooked": 3015,
      "ĠCons": 3016,
      "Ġconsist": 3017,
      "outhern": 3018,
      "Ġstreng": 3019,
      "rote": 3020,
      "raw": 3021,
      "room": 3022,
      "ĠCollege": 3023,
      "ension": 3024,
      "Ġrecent": 3025,
      "Ġdeal": 3026,
      "Ġfollowed": 3027,
      "gar": 3028,
      "Ġreview": 3029,
      "Ġprote": 3030,
      "Ġgreater": 3031,
      "Ġmaterials": 3032,
      "ĠPeople": 3033,
      "Ġforest": 3034,
      "ĠCanada": 3035,
      "Ġinstead": 3036,
      "off": 3037,
      "Ġapproach": 3038,
      "itch": 3039,
      "Ġcivil": 3040,
      "Ġheard": 3041,
      "Ġfile": 3042,
      "Ġvari": 3043,
      "Ġmeaning": 3044,
      "Ġcomputer": 3045,
      "IC": 3046,
      "Ġskills": 3047,
      "rag": 3048,
      "Ġstandard": 3049,
      "urs": 3050,
      "ĠGovern": 3051,
      "Ġeffective": 3052,
      "load": 3053,
      "Ġsus": 3054,
      "airs": 3055,
      "roy": 3056,
      "Ġtowards": 3057,
      "Ġgames": 3058,
      "Ġpoints": 3059,
      "Ġshown": 3060,
      "Ġdead": 3061,
      "Ġversion": 3062,
      "ĠĠĠĠĠĠ": 3063,
      "Ġtherefore": 3064,
      "aches": 3065,
      "Ġindustry": 3066,
      "Ġturned": 3067,
      "used": 3068,
      "Ġcover": 3069,
      "ufact": 3070,
      "Ġpattern": 3071,
      "istics": 3072,
      "Ġaverage": 3073,
      "Ġfriends": 3074,
      "ĠEduc": 3075,
      "ĠTrans": 3076,
      "Ġcontinued": 3077,
      "ought": 3078,
      "Ġarri": 3079,
      "Ġgenerally": 3080,
      "Ġmedic": 3081,
      "rs": 3082,
      "ĠAssoci": 3083,
      "astic": 3084,
      "ĠScience": 3085,
      "Ġtravel": 3086,
      "Ġincreasing": 3087,
      "ricult": 3088,
      "Ġpage": 3089,
      "Ġthreat": 3090,
      "Ġ2004": 3091,
      "IT": 3092,
      "40": 3093,
      "Ġtax": 3094,
      "aily": 3095,
      "Ġmovement": 3096,
      "Ġlives": 3097,
      "Ġ_": 3098,
      "60": 3099,
      "Ġtable": 3100,
      "ager": 3101,
      "ĠUs": 3102,
      "Ġlack": 3103,
      "Ġanything": 3104,
      "Ġbeaut": 3105,
      "Ġgold": 3106,
      "Ġrout": 3107,
      "ĠChina": 3108,
      "Ġang": 3109,
      "Ġinvolved": 3110,
      "Ġmiss": 3111,
      "Ġprec": 3112,
      "80": 3113,
      "Ġmer": 3114,
      "oud": 3115,
      "Ġcomplete": 3116,
      "where": 3117,
      "Ġimmedi": 3118,
      "Ġast": 3119,
      "Ġanalysis": 3120,
      "ĠDis": 3121,
      "pped": 3122,
      "ĠCenter": 3123,
      "Ġ40": 3124,
      "Ġeat": 3125,
      "ĠAir": 3126,
      "ĠHouse": 3127,
      "Ġclean": 3128,
      "Ġfeed": 3129,
      "Ġdoing": 3130,
      "Ġvisit": 3131,
      "Ġ23": 3132,
      "rial": 3133,
      "aces": 3134,
      "Ġspread": 3135,
      "itting": 3136,
      "Ġsubst": 3137,
      "ĠCour": 3138,
      "Ġattention": 3139,
      "ucle": 3140,
      "Ġeasy": 3141,
      "su": 3142,
      "Ġvideo": 3143,
      "Ġheat": 3144,
      "asons": 3145,
      "Ġdescribed": 3146,
      "ĠWash": 3147,
      "ica": 3148,
      "Ġir": 3149,
      "ounds": 3150,
      "nown": 3151,
      "Ġrock": 3152,
      "test": 3153,
      "Ġvict": 3154,
      "Ġforms": 3155,
      "Ã¡": 3156,
      "icip": 3157,
      "file": 3158,
      "Ġdang": 3159,
      "Ġearli": 3160,
      "Ġmid": 3161,
      "Ġfight": 3162,
      "aught": 3163,
      "ĠDavid": 3164,
      "ald": 3165,
      "Ġissue": 3166,
      "Ġtree": 3167,
      "uge": 3168,
      "Ġcollect": 3169,
      "Ġinteg": 3170,
      "Ġchurch": 3171,
      "Ġuses": 3172,
      "Ġessential": 3173,
      "Ġband": 3174,
      "Ġreturned": 3175,
      "ama": 3176,
      "anc": 3177,
      "ĠServ": 3178,
      "Ġparticularly": 3179,
      "args": 3180,
      "Ġbrother": 3181,
      "Ġacqu": 3182,
      "levision": 3183,
      "Ġculture": 3184,
      "col": 3185,
      "Ġappl": 3186,
      "Ġprograms": 3187,
      "ĠSim": 3188,
      "Ġcontain": 3189,
      "Ġmechan": 3190,
      "Ġsoil": 3191,
      "Ġvariety": 3192,
      "ĠBro": 3193,
      "Ġbad": 3194,
      "ns": 3195,
      "ixed": 3196,
      "Ġindividuals": 3197,
      "ĠYour": 3198,
      "Ġfactors": 3199,
      "Ġnetwork": 3200,
      "Ġsimply": 3201,
      "='": 3202,
      "ĠRed": 3203,
      "verse": 3204,
      "Ġprobably": 3205,
      "inct": 3206,
      "rael": 3207,
      "Ġcontact": 3208,
      "ken": 3209,
      "Ġchemical": 3210,
      "ett": 3211,
      "isions": 3212,
      "Ġpassed": 3213,
      "ĠWilliam": 3214,
      "Ġassess": 3215,
      "Ġmagn": 3216,
      "fl": 3217,
      "lim": 3218,
      "Ġagre": 3219,
      "ĠPresident": 3220,
      "Ġsal": 3221,
      "Ġinstit": 3222,
      "ĠGr": 3223,
      "ĠGreat": 3224,
      "ĠGeneral": 3225,
      "mar": 3226,
      "ĠMich": 3227,
      "ĠLord": 3228,
      "Ġ2013": 3229,
      "=\"": 3230,
      "ĠDon": 3231,
      "Ġmoved": 3232,
      "Ġfru": 3233,
      "anish": 3234,
      "ED": 3235,
      "Ġbeginning": 3236,
      "Ġ190": 3237,
      "Ġcontinue": 3238,
      "Ġeye": 3239,
      "odes": 3240,
      "ĠDepartment": 3241,
      "anks": 3242,
      "########": 3243,
      "ady": 3244,
      "Ġserious": 3245,
      "fort": 3246,
      "irm": 3247,
      "ribution": 3248,
      "Ġpolicy": 3249,
      "Ġstru": 3250,
      "Ġreve": 3251,
      "ancy": 3252,
      "rast": 3253,
      "Ġnumbers": 3254,
      "ico": 3255,
      "Ġmis": 3256,
      "pid": 3257,
      "list": 3258,
      "Ġlength": 3259,
      "ĠSince": 3260,
      "Ġaud": 3261,
      "Ġonline": 3262,
      "Ġfeatures": 3263,
      ".âĢĻ": 3264,
      "Ġstay": 3265,
      "ype": 3266,
      "ronic": 3267,
      "Ġmethods": 3268,
      "Ġinteract": 3269,
      "aced": 3270,
      "yond": 3271,
      "AC": 3272,
      "Ġder": 3273,
      "Ġfear": 3274,
      "Ġavoid": 3275,
      "Ġbit": 3276,
      "Ġwrote": 3277,
      "Ġ2003": 3278,
      "Ġprep": 3279,
      "Ġwife": 3280,
      "ĠBlack": 3281,
      "Ġhealthy": 3282,
      "ĠAustralia": 3283,
      "init": 3284,
      "atively": 3285,
      "cast": 3286,
      "aughter": 3287,
      "leb": 3288,
      "Ġtemperature": 3289,
      "Ġexec": 3290,
      "ĠPaul": 3291,
      "Ġbehavior": 3292,
      "])": 3293,
      "âĢ¦": 3294,
      "enty": 3295,
      "Ġleave": 3296,
      "ropri": 3297,
      "ĠPat": 3298,
      "Ġcast": 3299,
      "ĠSer": 3300,
      "ĠMor": 3301,
      "Ġhot": 3302,
      "ĠInstitute": 3303,
      "ĠBr": 3304,
      "ĠFin": 3305,
      "Ġwond": 3306,
      "Ġago": 3307,
      "Ġperformance": 3308,
      "ties": 3309,
      "Ġfootball": 3310,
      "ervation": 3311,
      "Ġsn": 3312,
      "ĠCoun": 3313,
      "Ġdemon": 3314,
      "Ġanswer": 3315,
      "hy": 3316,
      "Ġtakes": 3317,
      "Ġbott": 3318,
      "Ġshare": 3319,
      "Ġprivate": 3320,
      "Ġconnect": 3321,
      "AL": 3322,
      "year": 3323,
      "Ġenvironmental": 3324,
      "arr": 3325,
      "arden": 3326,
      "ĠPress": 3327,
      "resp": 3328,
      "II": 3329,
      "ĠWashington": 3330,
      "Ġtrees": 3331,
      "Ġfa": 3332,
      "Ġcit": 3333,
      "ĠVir": 3334,
      "AP": 3335,
      "Ġserved": 3336,
      "Ġcauses": 3337,
      "ĠGeorge": 3338,
      "Ġalone": 3339,
      "itect": 3340,
      "ĠTra": 3341,
      "We": 3342,
      "Ġfast": 3343,
      "Ġmanufact": 3344,
      "Ġharm": 3345,
      "ĠJames": 3346,
      "Ġful": 3347,
      "Ġsources": 3348,
      "Ġinitial": 3349,
      "imum": 3350,
      "Ġcareer": 3351,
      "wise": 3352,
      "ĠAfrican": 3353,
      "Ġadminist": 3354,
      "Ġ2001": 3355,
      "oes": 3356,
      "ession": 3357,
      "Ġencoura": 3358,
      "omb": 3359,
      "Ġwarm": 3360,
      "eks": 3361,
      "ped": 3362,
      "Ġ22": 3363,
      "Ġinn": 3364,
      "Ġnormal": 3365,
      "====": 3366,
      "Ġprimary": 3367,
      "Ġhope": 3368,
      "Ġtheory": 3369,
      "ider": 3370,
      "Ġswe": 3371,
      "Ġleading": 3372,
      "ĠFrance": 3373,
      "Ġcourt": 3374,
      "ĠIsrael": 3375,
      "ĠAfrica": 3376,
      "pite": 3377,
      "Ġformed": 3378,
      "vert": 3379,
      "Ġneigh": 3380,
      "Ġdoor": 3381,
      "Ġvoice": 3382,
      "resh": 3383,
      "ying": 3384,
      "Ġcarry": 3385,
      "vention": 3386,
      "Ġlif": 3387,
      "Ġeight": 3388,
      "omet": 3389,
      "inf": 3390,
      "ĠThom": 3391,
      "rab": 3392,
      "ĠChild": 3393,
      "ĠÂłÂłÂł": 3394,
      "Ġinvestig": 3395,
      "Ġnation": 3396,
      "Ġnearly": 3397,
      "You": 3398,
      "Ġmonth": 3399,
      "ĠRec": 3400,
      "Ġ27": 3401,
      "HE": 3402,
      "ĠDist": 3403,
      "Ġdiagn": 3404,
      "Ġpsych": 3405,
      "uous": 3406,
      "mission": 3407,
      "ech": 3408,
      "Ġmedia": 3409,
      "Ġplaces": 3410,
      "Ġcompanies": 3411,
      "ulated": 3412,
      "ĠUnion": 3413,
      "Ġhous": 3414,
      "ĠRet": 3415,
      "Ġstress": 3416,
      "ibrary": 3417,
      "Ġnor": 3418,
      "Ġimplement": 3419,
      "ĠLaw": 3420,
      "Ġspirit": 3421,
      "Ġwide": 3422,
      "Ġminutes": 3423,
      "Ġgetting": 3424,
      "Ġlines": 3425,
      "27": 3426,
      "cles": 3427,
      "ĠJust": 3428,
      "Ġcompon": 3429,
      "Ġcold": 3430,
      "bed": 3431,
      "Ġknew": 3432,
      "Ġbirth": 3433,
      "ani": 3434,
      "ĠRober": 3435,
      "ĠMrs": 3436,
      "ingu": 3437,
      "Ġdocument": 3438,
      "Ġestim": 3439,
      "Ġseems": 3440,
      "ĠAdd": 3441,
      "Ġextra": 3442,
      "Ġpack": 3443,
      "Ġancient": 3444,
      "ancial": 3445,
      "equ": 3446,
      "Ġelectric": 3447,
      "rapy": 3448,
      "alled": 3449,
      "Ġseemed": 3450,
      "uild": 3451,
      "Ġsearch": 3452,
      "Ġ26": 3453,
      "ridge": 3454,
      "Ġlarger": 3455,
      "Ġnews": 3456,
      ");": 3457,
      "Ġdrink": 3458,
      "Ġsort": 3459,
      "Ġcentral": 3460,
      "Ġquickly": 3461,
      "ĠStre": 3462,
      "Ġactive": 3463,
      "Ġfeature": 3464,
      "Ġleaders": 3465,
      "ĠJes": 3466,
      "ĠDay": 3467,
      "ky": 3468,
      "Ġexpected": 3469,
      "Ġcred": 3470,
      "urt": 3471,
      "ĠSte": 3472,
      "Ġcarbon": 3473,
      "Ġaccom": 3474,
      "ĠCong": 3475,
      "Ġdat": 3476,
      "Ġgrowing": 3477,
      "Ġlargest": 3478,
      "ĠArch": 3479,
      "Ġbal": 3480,
      "Ġec": 3481,
      "Ġmention": 3482,
      "Ġren": 3483,
      "Ġ%": 3484,
      "Ġscientists": 3485,
      "Ġcoming": 3486,
      "Ġanimal": 3487,
      "ĠPort": 3488,
      "lection": 3489,
      "oo": 3490,
      "Ġfair": 3491,
      "29": 3492,
      "ĠRich": 3493,
      "Ġspeed": 3494,
      "Ġmax": 3495,
      "Ġwebsite": 3496,
      "ĠLa": 3497,
      "Ġ189": 3498,
      "Ġdirectly": 3499,
      ",âĢĻ": 3500,
      "istry": 3501,
      "Ġtrack": 3502,
      "Ġeasily": 3503,
      "Ġmale": 3504,
      "Ġcapital": 3505,
      "Ġperhaps": 3506,
      "ST": 3507,
      "Ġdamage": 3508,
      "Ġmag": 3509,
      "Ġarm": 3510,
      "aled": 3511,
      "Ġbab": 3512,
      "joy": 3513,
      "ĠBel": 3514,
      "Ġtarget": 3515,
      "Ġadditional": 3516,
      "inter": 3517,
      "Ġbeg": 3518,
      "Ġriver": 3519,
      "oyal": 3520,
      "Ġpurpose": 3521,
      "Ġund": 3522,
      "Ġcorrect": 3523,
      "osition": 3524,
      "Ġwr": 3525,
      "ĠMary": 3526,
      "bit": 3527,
      "Ġtransl": 3528,
      "26": 3529,
      "isl": 3530,
      "asion": 3531,
      "Ġdoub": 3532,
      "Ġproperty": 3533,
      "ĠMil": 3534,
      "hest": 3535,
      "Ġoffer": 3536,
      "Ġplaced": 3537,
      "ĠPal": 3538,
      "Ġsection": 3539,
      "Ġhar": 3540,
      "Ġpen": 3541,
      "Ġtraditional": 3542,
      "Ġoccup": 3543,
      "yp": 3544,
      "ĠGermany": 3545,
      "ĠMex": 3546,
      "uman": 3547,
      "Ġmorning": 3548,
      "28": 3549,
      "see": 3550,
      "Ġ28": 3551,
      "Ġtou": 3552,
      "book": 3553,
      "ĠEven": 3554,
      "ĠBi": 3555,
      "Ġappeared": 3556,
      "Ġhabit": 3557,
      "Ġ2002": 3558,
      "Ġaltern": 3559,
      "Ġpositive": 3560,
      "Ġinside": 3561,
      "iful": 3562,
      "Ġsafety": 3563,
      "cean": 3564,
      "gram": 3565,
      "Ġden": 3566,
      "ĠOur": 3567,
      "Ġideas": 3568,
      "illing": 3569,
      "cause": 3570,
      "ception": 3571,
      "Ġstyle": 3572,
      "Ġhyd": 3573,
      "Ġremain": 3574,
      "Ġoffice": 3575,
      "Ġball": 3576,
      "osing": 3577,
      "Ġmiles": 3578,
      "ĠBook": 3579,
      "Ġsch": 3580,
      "ĠMod": 3581,
      "Ġforces": 3582,
      "ĠAssociation": 3583,
      "Ġfelt": 3584,
      "Ġdoctor": 3585,
      "Ġworked": 3586,
      "Ġassert": 3587,
      "ĠLeague": 3588,
      "Ġcorn": 3589,
      "Ġsummer": 3590,
      "Ġstage": 3591,
      "ĠBer": 3592,
      "come": 3593,
      "?\"": 3594,
      "semb": 3595,
      "Ġox": 3596,
      "Ġtoward": 3597,
      "ampions": 3598,
      "Ġwrite": 3599,
      "Ġstra": 3600,
      "oring": 3601,
      "bert": 3602,
      "oted": 3603,
      "inated": 3604,
      "Ġvalues": 3605,
      "Ġopened": 3606,
      "ula": 3607,
      "ĠJer": 3608,
      "atur": 3609,
      "Ġnames": 3610,
      "Ġparty": 3611,
      "mercial": 3612,
      "Ġnovel": 3613,
      "ĠBra": 3614,
      "Ġcoast": 3615,
      "Ġinfluence": 3616,
      "udd": 3617,
      "ternet": 3618,
      "ĠCath": 3619,
      "Ġcou": 3620,
      "Ġburn": 3621,
      "inese": 3622,
      "ĠHen": 3623,
      "Ġcontains": 3624,
      "Ġbasic": 3625,
      "Ġeth": 3626,
      "Ġprior": 3627,
      "Ġsurround": 3628,
      "known": 3629,
      "irection": 3630,
      "Ch": 3631,
      "hens": 3632,
      "ĠCommun": 3633,
      "unch": 3634,
      "Ġstar": 3635,
      "Ġscientific": 3636,
      "Ġprogress": 3637,
      "Ġconstit": 3638,
      "Ġphil": 3639,
      "Ġmicro": 3640,
      "Ġexact": 3641,
      "Ġallowed": 3642,
      "Ġconcent": 3643,
      "Ġsust": 3644,
      "mitted": 3645,
      "abet": 3646,
      "wood": 3647,
      "idents": 3648,
      "ounced": 3649,
      "IV": 3650,
      "Ġbenefits": 3651,
      "tr": 3652,
      "Ġmultiple": 3653,
      "with": 3654,
      "Ġconstruction": 3655,
      "Ġcenter": 3656,
      "century": 3657,
      "Ġadj": 3658,
      "Ġcustom": 3659,
      "Ġtransport": 3660,
      "Ġlimited": 3661,
      "Ġ@": 3662,
      "uries": 3663,
      "ĠQue": 3664,
      "Ġblock": 3665,
      "www": 3666,
      "'re": 3667,
      "Ġidentify": 3668,
      "iar": 3669,
      "ĠList": 3670,
      "ributed": 3671,
      "Ġreligious": 3672,
      "Ġlabor": 3673,
      "Ġ>": 3674,
      "ĠChe": 3675,
      "70": 3676,
      "Ġcard": 3677,
      "Ġhighly": 3678,
      "Ġdeveloping": 3679,
      "Ġdoesn": 3680,
      "craft": 3681,
      "Ġhear": 3682,
      "Ġmodels": 3683,
      "writ": 3684,
      "EC": 3685,
      "Ġ__": 3686,
      "text": 3687,
      "Ġbed": 3688,
      "oming": 3689,
      "Ġesc": 3690,
      "arian": 3691,
      "Ġbacter": 3692,
      "Ġbeyond": 3693,
      "Ġpatient": 3694,
      "ĠEducation": 3695,
      "Ġimag": 3696,
      "Ġclub": 3697,
      "Ġdifference": 3698,
      "ET": 3699,
      "Ġhttp": 3700,
      "ĠSociety": 3701,
      "Ġbox": 3702,
      "fig": 3703,
      "ĠLou": 3704,
      "Ġaware": 3705,
      "ĠCO": 3706,
      "ĠNor": 3707,
      "ville": 3708,
      "Ġinstr": 3709,
      "Ġtitle": 3710,
      "met": 3711,
      "igned": 3712,
      "Ġadop": 3713,
      "ĠInter": 3714,
      "Ġwat": 3715,
      "ĠWhy": 3716,
      "ĠSpe": 3717,
      "ida": 3718,
      "Ġship": 3719,
      "Ġseven": 3720,
      "atin": 3721,
      "ĠJe": 3722,
      "Ġdestroy": 3723,
      "Ġpeace": 3724,
      "Ġdaily": 3725,
      "reme": 3726,
      "Ġweeks": 3727,
      "Ġuser": 3728,
      "Ġsafe": 3729,
      "gency": 3730,
      "Ġenjoy": 3731,
      "ĠRepublic": 3732,
      "Ġemot": 3733,
      "Ġtrade": 3734,
      "Ġcommunities": 3735,
      "ĠOver": 3736,
      "ĠLet": 3737,
      "ĠAp": 3738,
      "och": 3739,
      "band": 3740,
      "py": 3741,
      "Ġdry": 3742,
      "ulate": 3743,
      "date": 3744,
      "Ġdemand": 3745,
      "Ġdegree": 3746,
      "Ġfamilies": 3747,
      "Ġrail": 3748,
      "Ġmiddle": 3749,
      "Ġcompared": 3750,
      "Ġsevere": 3751,
      "Ã¶": 3752,
      "ĠAre": 3753,
      "Ġĉĉ": 3754,
      "Ġtend": 3755,
      "Ġchanged": 3756,
      "ĠMal": 3757,
      "Ġbreat": 3758,
      "Ġrepe": 3759,
      "Ġprofessional": 3760,
      "Ġ1999": 3761,
      "Ġrapid": 3762,
      "eal": 3763,
      "Ġcolon": 3764,
      "ĠProf": 3765,
      "Ġdate": 3766,
      "Ġremains": 3767,
      "ipl": 3768,
      "ĠTur": 3769,
      "Ġeverything": 3770,
      "amer": 3771,
      "ocr": 3772,
      "ĠCourt": 3773,
      "wor": 3774,
      "ĠCouncil": 3775,
      "ĠPri": 3776,
      "Ġvirus": 3777,
      "Ġquant": 3778,
      "Ġbra": 3779,
      "Ġteachers": 3780,
      "itte": 3781,
      "Ġsituation": 3782,
      "ĠChinese": 3783,
      "Ġcode": 3784,
      "198": 3785,
      "apter": 3786,
      "Ġvillage": 3787,
      "Ġappropri": 3788,
      "Ġachieve": 3789,
      "Ġnucle": 3790,
      "ĠTechn": 3791,
      "Ġeval": 3792,
      "ĠSam": 3793,
      "pir": 3794,
      "Ġnp": 3795,
      "estic": 3796,
      "ĠWestern": 3797,
      "Ġcarried": 3798,
      "Ġmemory": 3799,
      "place": 3800,
      "Ġcry": 3801,
      "Ġplayer": 3802,
      "Ġcontract": 3803,
      "Ġelements": 3804,
      "Ġdidn": 3805,
      "aling": 3806,
      "nes": 3807,
      "Ġveget": 3808,
      "Ġchalleng": 3809,
      "ĠDiv": 3810,
      "Ġ1990": 3811,
      "Ġthinking": 3812,
      "**": 3813,
      "Ġreach": 3814,
      "ribute": 3815,
      "leg": 3816,
      "Ġthou": 3817,
      "Ġleaves": 3818,
      "ael": 3819,
      "Ġpoll": 3820,
      "Ġdim": 3821,
      "Ġallows": 3822,
      "rief": 3823,
      "ĠAlso": 3824,
      "ss": 3825,
      "ospital": 3826,
      "Ġhair": 3827,
      "Ġadapt": 3828,
      "erate": 3829,
      "Ġveh": 3830,
      "ĠGreen": 3831,
      "Ġceleb": 3832,
      "ĠMart": 3833,
      "Ġboard": 3834,
      "acity": 3835,
      "Ġdistance": 3836,
      "Ġforward": 3837,
      "Ã¼": 3838,
      "ocks": 3839,
      "Ġsequ": 3840,
      "Ġbound": 3841,
      "Ġfort": 3842,
      "Ġsoftware": 3843,
      "BC": 3844,
      "Ġaspect": 3845,
      "ago": 3846,
      "Ġice": 3847,
      "Ġsecurity": 3848,
      "Ġgoal": 3849,
      "Ġsuccessful": 3850,
      "antly": 3851,
      "Ġtelevision": 3852,
      "Ġdecision": 3853,
      "tained": 3854,
      "Ġaim": 3855,
      "Ġdetermine": 3856,
      "ander": 3857,
      "ellig": 3858,
      "ĠDem": 3859,
      "Ġperfect": 3860,
      "odies": 3861,
      "Ġappoint": 3862,
      "Ġdecre": 3863,
      "rian": 3864,
      "rupt": 3865,
      "Ġcitiz": 3866,
      "Ġtrou": 3867,
      "izations": 3868,
      "ĠMount": 3869,
      "Ġrare": 3870,
      "Ġones": 3871,
      "well": 3872,
      "Ġsupply": 3873,
      "ĠTheir": 3874,
      "Ġfinancial": 3875,
      "aign": 3876,
      "Ġensure": 3877,
      "Ġ2015": 3878,
      "Ġdemonstr": 3879,
      "].": 3880,
      "ĠĠĠĠĠĠĠĠĠĠĠĠĠĠĠĠĠĠĠĠĠĠĠĠĠĠĠĠĠĠĠĠ": 3881,
      "ĠBecause": 3882,
      "Ġhelps": 3883,
      "Ġreached": 3884,
      "ees": 3885,
      "ĠUnder": 3886,
      "Ġhour": 3887,
      "Ġkilled": 3888,
      "Ġpurch": 3889,
      "itable": 3890,
      "Ġrace": 3891,
      "ĠSir": 3892,
      "ocal": 3893,
      "Ġsec": 3894,
      "Ġ2014": 3895,
      "iled": 3896,
      "'ll": 3897,
      "omy": 3898,
      "ĠâĢ¢": 3899,
      "Ġ29": 3900,
      "ĠArmy": 3901,
      "Ġthy": 3902,
      "ste": 3903,
      "king": 3904,
      "ĠJapanese": 3905,
      "Ġaw": 3906,
      "Ġapprox": 3907,
      "Ġacid": 3908,
      "unction": 3909,
      "ĠVol": 3910,
      "iot": 3911,
      "Ġfoods": 3912,
      "can": 3913,
      "Ġrunning": 3914,
      "Ġconv": 3915,
      "oses": 3916,
      "Ġmanner": 3917,
      "rec": 3918,
      "Ġletter": 3919,
      "body": 3920,
      "ĠAnother": 3921,
      "Ġworth": 3922,
      "ĠUK": 3923,
      "iency": 3924,
      "gn": 3925,
      "Ġdiscovered": 3926,
      "ship": 3927,
      "Ġuseful": 3928,
      "ĠPublic": 3929,
      "zer": 3930,
      "ĠJesus": 3931,
      "Ġcontext": 3932,
      "Ġassist": 3933,
      "ibly": 3934,
      "Ġvirt": 3935,
      "osure": 3936,
      "Ġbecomes": 3937,
      "iance": 3938,
      "Ġlocation": 3939,
      "pan": 3940,
      "Ġarr": 3941,
      "Ġsomeone": 3942,
      "Ġmental": 3943,
      "Ġblue": 3944,
      "Ġunique": 3945,
      "Ġsurpr": 3946,
      "issions": 3947,
      "Ġwatch": 3948,
      "spe": 3949,
      "Ġstatus": 3950,
      "Ġcru": 3951,
      "Ġtruth": 3952,
      "Ġpow": 3953,
      "yself": 3954,
      "ĠAustralian": 3955,
      "imal": 3956,
      "Ġphilos": 3957,
      "Ġadvant": 3958,
      "ĠÃ": 3959,
      "ĠRel": 3960,
      "esc": 3961,
      "Ġremained": 3962,
      "house": 3963,
      "Ġdirection": 3964,
      "Ġrule": 3965,
      "ician": 3966,
      "Ġsymb": 3967,
      "ĠCur": 3968,
      "isms": 3969,
      "gl": 3970,
      "ef": 3971,
      "ĠFil": 3972,
      "Äģ": 3973,
      "Ġcurrently": 3974,
      "Ġbattle": 3975,
      "Ġcollection": 3976,
      "33": 3977,
      "Ġlegal": 3978,
      "Ġenter": 3979,
      "Ġhumans": 3980,
      "Ġearlier": 3981,
      "Ġbul": 3982,
      "Ġmill": 3983,
      "Ġshape": 3984,
      "Ġheavy": 3985,
      "aker": 3986,
      "Ġbran": 3987,
      "riage": 3988,
      "ĠTom": 3989,
      "Ġmouth": 3990,
      "iques": 3991,
      "uate": 3992,
      "Ġdisplay": 3993,
      "Ġtools": 3994,
      "Ġaccur": 3995,
      "unk": 3996,
      "zz": 3997,
      "Ġpresence": 3998,
      "Ġoutput": 3999,
      "erg": 4000,
      "Ġcommercial": 4001,
      "Ġ186": 4002,
      "Ġbank": 4003,
      "Ġult": 4004,
      "ĠMark": 4005,
      "Ġvia": 4006,
      "Ġcritical": 4007,
      "Ġefforts": 4008,
      "inate": 4009,
      "Ġcand": 4010,
      "ĠSystem": 4011,
      "ĠRead": 4012,
      "Ġimages": 4013,
      "point": 4014,
      "Ġtro": 4015,
      "Ġlived": 4016,
      "izes": 4017,
      "Ġrelease": 4018,
      "class": 4019,
      "Ġkept": 4020,
      "Ġsem": 4021,
      "AM": 4022,
      "Ġwanted": 4023,
      "Ġexercise": 4024,
      "antic": 4025,
      "Ġpret": 4026,
      "ares": 4027,
      "comp": 4028,
      "Ġvit": 4029,
      "ux": 4030,
      "mark": 4031,
      "Ġgives": 4032,
      "Ġagricult": 4033,
      "Ġkids": 4034,
      "amm": 4035,
      "olar": 4036,
      "Ġ2016": 4037,
      "kin": 4038,
      "elled": 4039,
      "Ġpresident": 4040,
      "[\"": 4041,
      "Ġfederal": 4042,
      "Ġproced": 4043,
      "ĠRev": 4044,
      "Ġbasis": 4045,
      "Ġ60": 4046,
      "Ġreceive": 4047,
      "Ġpan": 4048,
      "Ġlaws": 4049,
      "Ġobjects": 4050,
      "ĠDevelop": 4051,
      "lor": 4052,
      "Ġ1998": 4053,
      "ously": 4054,
      "ĠTwo": 4055,
      "ĠIr": 4056,
      "ios": 4057,
      "Ġconsequ": 4058,
      "ĠRobert": 4059,
      "Ġexpress": 4060,
      "ĠJewish": 4061,
      "ĠStreet": 4062,
      "Ġsites": 4063,
      "RO": 4064,
      "Ġrequest": 4065,
      "Ġsud": 4066,
      "Ġinform": 4067,
      "umber": 4068,
      "Ġarchitect": 4069,
      "oma": 4070,
      "Ġload": 4071,
      "Ġfigure": 4072,
      "ĠThus": 4073,
      "Ġworkers": 4074,
      "bre": 4075,
      "Ġprotection": 4076,
      "ÃŃ": 4077,
      "Ġsave": 4078,
      "Ġsecret": 4079,
      "ny": 4080,
      "Ġpick": 4081,
      "vest": 4082,
      "Ġdefin": 4083,
      "True": 4084,
      "Ġtiss": 4085,
      "Ġmut": 4086,
      "Ġintroduced": 4087,
      "Ġsaying": 4088,
      "Ġeast": 4089,
      "ĠThomas": 4090,
      "ĠGreek": 4091,
      "Ġteaching": 4092,
      "ĠEach": 4093,
      "Ġcool": 4094,
      "Ġolder": 4095,
      "Ġwest": 4096,
      "Ġrich": 4097,
      "ĠMac": 4098,
      "amples": 4099,
      "Ġapplication": 4100,
      "Ġfaith": 4101,
      "Ġpal": 4102,
      "Ġremember": 4103,
      "Ġvacc": 4104,
      "45": 4105,
      "Ġpredict": 4106,
      "ev": 4107,
      "Ġsac": 4108,
      "ĠCanadian": 4109,
      "water": 4110,
      "Ġrob": 4111,
      "Ġconvers": 4112,
      "Ġshowed": 4113,
      "sect": 4114,
      "ĠProv": 4115,
      "Ġdiseases": 4116,
      "ĠNet": 4117,
      "Ġclin": 4118,
      "ĠWater": 4119,
      "Ġfemale": 4120,
      "Ġgoes": 4121,
      "Ġcop": 4122,
      "ĠTex": 4123,
      "Ġfif": 4124,
      "Ġorganization": 4125,
      "Ġscreen": 4126,
      "Ġappears": 4127,
      "ĠIS": 4128,
      "Ġmaster": 4129,
      "change": 4130,
      "idge": 4131,
      "overy": 4132,
      "Ġconstruct": 4133,
      "eters": 4134,
      "ĠJournal": 4135,
      "annel": 4136,
      "Ġcities": 4137,
      "ĠEv": 4138,
      "Ġperformed": 4139,
      "Ġtrain": 4140,
      "gypt": 4141,
      "Ġunit": 4142,
      "orders": 4143,
      "iny": 4144,
      "Ġforeign": 4145,
      "Ġquar": 4146,
      "ĠAcadem": 4147,
      "Ġdistrict": 4148,
      "coh": 4149,
      "Ġimportance": 4150,
      "Ġtransfer": 4151,
      "Ġwinter": 4152,
      "ĠFore": 4153,
      "Ġstaff": 4154,
      "Ġreb": 4155,
      "Ġboy": 4156,
      "RE": 4157,
      "ĠLear": 4158,
      "Ġanaly": 4159,
      "Ġpiece": 4160,
      "Ġsudden": 4161,
      "Ġtrying": 4162,
      "Ġgent": 4163,
      "Ġdevice": 4164,
      "Ġâ": 4165,
      "ĠSpanish": 4166,
      "ii": 4167,
      "ĠMet": 4168,
      "Ġdaughter": 4169,
      "Ġbelieved": 4170,
      "ĠWil": 4171,
      "board": 4172,
      "lymp": 4173,
      "ĠSub": 4174,
      "Ġcopy": 4175,
      "Ġhol": 4176,
      "Ġsmaller": 4177,
      "life": 4178,
      "Ġalt": 4179,
      "ĠCongress": 4180,
      "Ġanti": 4181,
      "ipment": 4182,
      "berg": 4183,
      "ĠYear": 4184,
      "ĠAmericans": 4185,
      "Ġtim": 4186,
      "Ġimmediately": 4187,
      "atus": 4188,
      "Ġhorse": 4189,
      "jo": 4190,
      "ĠIsland": 4191,
      "Ġscale": 4192,
      "term": 4193,
      "Ġstood": 4194,
      "ey": 4195,
      "edom": 4196,
      "Ġcateg": 4197,
      "clus": 4198,
      "Ġautom": 4199,
      "Ġrise": 4200,
      "road": 4201,
      "Ġextrem": 4202,
      "ĠSal": 4203,
      "ittee": 4204,
      "igr": 4205,
      "35": 4206,
      "Ġradio": 4207,
      "Ġmatch": 4208,
      "rogen": 4209,
      "Ġpet": 4210,
      "Ġqual": 4211,
      "Ġinfection": 4212,
      "Ġraise": 4213,
      "Ġframe": 4214,
      "US": 4215,
      "Ġslight": 4216,
      "ĠUp": 4217,
      "ayer": 4218,
      "Ġ188": 4219,
      "Ġyourself": 4220,
      "Ġeventually": 4221,
      "state": 4222,
      "Ġprojects": 4223,
      "orial": 4224,
      "ĠOlymp": 4225,
      "ĠSur": 4226,
      "Ġinput": 4227,
      "ĠMem": 4228,
      "Ġbirds": 4229,
      "Ġresponsible": 4230,
      "Ġwaste": 4231,
      "Ġdepend": 4232,
      "ĠCharles": 4233,
      "ĠGovernment": 4234,
      "Ġmarried": 4235,
      "Ġmyself": 4236,
      "Ġrequires": 4237,
      "Ġrules": 4238,
      "asure": 4239,
      "iant": 4240,
      "size": 4241,
      "Ġ1980": 4242,
      "Ġapplied": 4243,
      "Ġsolar": 4244,
      "iling": 4245,
      "Ġgiving": 4246,
      "ĠAlex": 4247,
      "Ġstrength": 4248,
      "32": 4249,
      "enth": 4250,
      "75": 4251,
      "Ġmajority": 4252,
      "Ġreflect": 4253,
      "Ġprotein": 4254,
      "ait": 4255,
      "Ġequal": 4256,
      "ĠWhite": 4257,
      "Ġdro": 4258,
      "Ġtypically": 4259,
      "Ġweather": 4260,
      "Ġnote": 4261,
      "Ġtests": 4262,
      "Ġenem": 4263,
      "ĠDi": 4264,
      "uted": 4265,
      "Ġrecently": 4266,
      "Ġinstance": 4267,
      "Ġobserved": 4268,
      "ĠCatholic": 4269,
      "ĠJack": 4270,
      "Ġtour": 4271,
      "iate": 4272,
      "ensity": 4273,
      "van": 4274,
      "iples": 4275,
      "Ġwrong": 4276,
      "ĠTod": 4277,
      "ogen": 4278,
      "Ġcompl": 4279,
      "Ġcompleted": 4280,
      "Ġhighest": 4281,
      "ĠDef": 4282,
      "Ġgrand": 4283,
      "ĠOnce": 4284,
      "ĠMuseum": 4285,
      "Ġmole": 4286,
      "Ġaf": 4287,
      "Ġgone": 4288,
      "Ġcultural": 4289,
      "rees": 4290,
      "more": 4291,
      "Ġign": 4292,
      "Ġmur": 4293,
      "Ġdecided": 4294,
      "ĠSl": 4295,
      "ria": 4296,
      "ĠPeter": 4297,
      "What": 4298,
      "ĠEgypt": 4299,
      "oration": 4300,
      "Ġexhib": 4301,
      "Ġrespond": 4302,
      "Ġacadem": 4303,
      "ĠScott": 4304,
      "Ġrates": 4305,
      "nel": 4306,
      "Ġprison": 4307,
      "Ġspl": 4308,
      "ĠSecond": 4309,
      "Ġcalcul": 4310,
      "requ": 4311,
      "Ġcompletely": 4312,
      "Ġconflic": 4313,
      "enge": 4314,
      "Ġcontroll": 4315,
      "mosp": 4316,
      "Ġrecorded": 4317,
      "Ġopportunity": 4318,
      "Ġjoint": 4319,
      "Ġglass": 4320,
      "Ġbelong": 4321,
      "78": 4322,
      "Ġhyp": 4323,
      "Ġpul": 4324,
      "ĠIts": 4325,
      "erved": 4326,
      "Ġarmy": 4327,
      "Ġmission": 4328,
      "Ġsav": 4329,
      "Ġteacher": 4330,
      "Ġfilms": 4331,
      "ampionship": 4332,
      "aste": 4333,
      "Ġweb": 4334,
      "Ġisland": 4335,
      "Ġ2017": 4336,
      "Ġye": 4337,
      "part": 4338,
      "ĠHall": 4339,
      "urb": 4340,
      "Ġiron": 4341,
      "Ġjournal": 4342,
      "ĠOld": 4343,
      "Ġarms": 4344,
      "ologies": 4345,
      "astern": 4346,
      "Ġsteps": 4347,
      "tra": 4348,
      "Ġattract": 4349,
      "Ġbuildings": 4350,
      "Ġnegative": 4351,
      "ĠCentral": 4352,
      "ĠAv": 4353,
      "Ġseparate": 4354,
      "encies": 4355,
      "ĠTexas": 4356,
      "unicip": 4357,
      "Ġchief": 4358,
      "Ġegg": 4359,
      "Ġnative": 4360,
      "Ġcommunic": 4361,
      "porary": 4362,
      "aped": 4363,
      "Ġgirl": 4364,
      "sec": 4365,
      "ĠWell": 4366,
      "ĠEvery": 4367,
      "Ġexpand": 4368,
      "Ġspring": 4369,
      "Ġhop": 4370,
      "value": 4371,
      "Ġspect": 4372,
      "Ġreduced": 4373,
      "hemat": 4374,
      "And": 4375,
      "ĠInst": 4376,
      "Ġready": 4377,
      "Ġcommonly": 4378,
      "Ġax": 4379,
      "Ġelement": 4380,
      "Ġfell": 4381,
      "ĠTHE": 4382,
      "rows": 4383,
      "wide": 4384,
      "Ġreasons": 4385,
      "Ġopin": 4386,
      "Ġcovered": 4387,
      "bour": 4388,
      "ĠLouis": 4389,
      "iated": 4390,
      "apers": 4391,
      "AD": 4392,
      "Ġmist": 4393,
      "ĠVirgin": 4394,
      "90": 4395,
      "Ġaffected": 4396,
      "Ġmoving": 4397,
      "Ġpowerful": 4398,
      "ĠHenry": 4399,
      "Ġstrateg": 4400,
      "Ġfresh": 4401,
      "Ġchance": 4402,
      "Ġmachine": 4403,
      "Ġfuel": 4404,
      "Ġfavor": 4405,
      "edia": 4406,
      "ĠSun": 4407,
      "Ġillust": 4408,
      "Ġtask": 4409,
      "Ġbeautiful": 4410,
      "Ġhistorical": 4411,
      "Ġunto": 4412,
      "acters": 4413,
      "ĠBay": 4414,
      "rical": 4415,
      "Ġfine": 4416,
      "ias": 4417,
      "vant": 4418,
      "Ġstrugg": 4419,
      "ya": 4420,
      "ĠGroup": 4421,
      "Ġpresented": 4422,
      "Ġdefe": 4423,
      "ston": 4424,
      "inger": 4425,
      "Ġappropriate": 4426,
      "uated": 4427,
      "log": 4428,
      "Ġsolution": 4429,
      "Ġlimit": 4430,
      "ij": 4431,
      "Ġoperations": 4432,
      "rig": 4433,
      "abetes": 4434,
      "ĠFound": 4435,
      "ĠMad": 4436,
      "uit": 4437,
      "ĠSen": 4438,
      "ĠSum": 4439,
      "Ġadults": 4440,
      "Ġindependent": 4441,
      "ĠOff": 4442,
      "ĠProgram": 4443,
      "ero": 4444,
      "ugh": 4445,
      "Ġfellow": 4446,
      "ĠRoyal": 4447,
      "Ġcampaign": 4448,
      "Ġequipment": 4449,
      "Ġdevices": 4450,
      "Ġcosts": 4451,
      "ĠJose": 4452,
      "Ġprocesses": 4453,
      "assert": 4454,
      "Ġwonder": 4455,
      "ĠDistrict": 4456,
      "Ġtesting": 4457,
      "Ġcircum": 4458,
      "Ġcompar": 4459,
      "Ġgarden": 4460,
      "Ġepis": 4461,
      "Ġrat": 4462,
      "Ġeconomy": 4463,
      "mat": 4464,
      "Ġcrop": 4465,
      "itis": 4466,
      "ĠHel": 4467,
      "Ġcreating": 4468,
      "Ġcapacity": 4469,
      "Ġhus": 4470,
      "Ġtechniques": 4471,
      "Ġoverall": 4472,
      "Ġfully": 4473,
      "IL": 4474,
      "EL": 4475,
      "ĠTest": 4476,
      "Ã³": 4477,
      "Ġpicture": 4478,
      "Ġinh": 4479,
      "ĠProfess": 4480,
      "Ġassum": 4481,
      "Ġterrit": 4482,
      "36": 4483,
      "ĠCompany": 4484,
      "Ġstories": 4485,
      "Ġcollege": 4486,
      "iat": 4487,
      "itness": 4488,
      "ĠRichard": 4489,
      "Ġsustain": 4490,
      "Ġnumerous": 4491,
      "ĠOp": 4492,
      "Ġfields": 4493,
      "omin": 4494,
      "ĠIre": 4495,
      "ĠĠĠĠĠĠĠĠĠĠĠĠĠĠĠĠĠĠĠĠĠĠĠ": 4496,
      "Ġ...": 4497,
      "ube": 4498,
      "ĠOut": 4499,
      "yd": 4500,
      "Ġteeth": 4501,
      "Ġtrust": 4502,
      "Ġcommunication": 4503,
      "Ġfamous": 4504,
      "alian": 4505,
      "ĠFlor": 4506,
      "no": 4507,
      "Ġmessage": 4508,
      "Ġdram": 4509,
      "Ġincor": 4510,
      "99": 4511,
      "Ġpp": 4512,
      "Ġspent": 4513,
      "Ġtool": 4514,
      "uration": 4515,
      "Ġindeed": 4516,
      "atform": 4517,
      "Ġproviding": 4518,
      "Ġlearned": 4519,
      "oken": 4520,
      "Ġfruit": 4521,
      "Ġtrib": 4522,
      "ĠSmith": 4523,
      "Ġexamples": 4524,
      "liament": 4525,
      "ophy": 4526,
      "Ġgrant": 4527,
      "ĠFranc": 4528,
      "Ġapproximately": 4529,
      "Ġfol": 4530,
      "olf": 4531,
      "ĠSocial": 4532,
      "ĠNav": 4533,
      "othes": 4534,
      "ĠMass": 4535,
      "lo": 4536,
      "force": 4537,
      "olved": 4538,
      "ĠFurther": 4539,
      "Ġplaying": 4540,
      "Ġlegisl": 4541,
      "ĠMont": 4542,
      "iring": 4543,
      "Ġwish": 4544,
      "Ġpark": 4545,
      "cohol": 4546,
      "Ġmap": 4547,
      "Ġidentified": 4548,
      "Ġplans": 4549,
      "Ġdigital": 4550,
      "Ġgod": 4551,
      "Ġbecoming": 4552,
      "Ġdivid": 4553,
      "Ġbelief": 4554,
      "fil": 4555,
      "Ġserve": 4556,
      "Ġchoose": 4557,
      "iments": 4558,
      "ĠOrder": 4559,
      "ĠUse": 4560,
      "ĠRem": 4561,
      "Ġstandards": 4562,
      "net": 4563,
      "Ġlat": 4564,
      "Ġconsc": 4565,
      "Ġisn": 4566,
      "Ġproperties": 4567,
      "ĠRad": 4568,
      "ĠClass": 4569,
      "!\"": 4570,
      "Ġ1997": 4571,
      "Ġbreast": 4572,
      "Ġinteresting": 4573,
      "Ġchoice": 4574,
      "Ġdeaths": 4575,
      "ĠLife": 4576,
      "Ġvess": 4577,
      "Ġoccurs": 4578,
      "rror": 4579,
      "à¤": 4580,
      "Ġminor": 4581,
      "Ġbenefit": 4582,
      "fered": 4583,
      "ĠService": 4584,
      "Ġfle": 4585,
      "ctors": 4586,
      "Ġunf": 4587,
      "PA": 4588,
      "EM": 4589,
      "Ġexperien": 4590,
      "This": 4591,
      "ĠCle": 4592,
      "Ġunits": 4593,
      "Ġdrop": 4594,
      "Ġspeech": 4595,
      "Ġgun": 4596,
      "ĠWeb": 4597,
      "Ġapplications": 4598,
      "ĠArab": 4599,
      "Ġcook": 4600,
      "nam": 4601,
      "Ġeating": 4602,
      "Ġappearance": 4603,
      "Ġdisp": 4604,
      "lig": 4605,
      "Ġanx": 4606,
      "sey": 4607,
      "west": 4608,
      "Ġthr": 4609,
      "isation": 4610,
      "Ġdie": 4611,
      "ĠCarol": 4612,
      "'ve": 4613,
      "Ġactions": 4614,
      "Ġvisual": 4615,
      "Ġcharacters": 4616,
      "Ġ}": 4617,
      "Ġgentle": 4618,
      "Ġ1970": 4619,
      "Ġexpression": 4620,
      "Ġdut": 4621,
      "Ġmeeting": 4622,
      "ĠBas": 4623,
      "Ġherself": 4624,
      "burg": 4625,
      "Ġnorthern": 4626,
      "istan": 4627,
      "Ġraised": 4628,
      "Ġexisting": 4629,
      "icians": 4630,
      "Ġran": 4631,
      "phas": 4632,
      "No": 4633,
      "ĠAtl": 4634,
      "ĠBur": 4635,
      "ĠGold": 4636,
      "ĠTreat": 4637,
      "Ġprice": 4638,
      "ĠMars": 4639,
      "orage": 4640,
      "Ġsurg": 4641,
      "respond": 4642,
      "48": 4643,
      "Ġmob": 4644,
      "ml": 4645,
      "win": 4646,
      "100": 4647,
      "Ġannounced": 4648,
      "ĠEmp": 4649,
      "Ġsouthern": 4650,
      "Ġbaby": 4651,
      "isher": 4652,
      "Ġnoted": 4653,
      "ĠĠĠĠĠĠččĊ": 4654,
      "Ġfunctions": 4655,
      "Ġmeant": 4656,
      "38": 4657,
      "Ġhom": 4658,
      "ĠDNA": 4659,
      "Ġjoined": 4660,
      "Ġbillion": 4661,
      "Ġatmosp": 4662,
      "za": 4663,
      "Ġtru": 4664,
      "Ġweak": 4665,
      "ĠRoad": 4666,
      "Ġ2018": 4667,
      "Ġreports": 4668,
      "ht": 4669,
      "Ġcitizens": 4670,
      "Ġdirector": 4671,
      "Ġthousand": 4672,
      "but": 4673,
      "Ġdyn": 4674,
      "Ġmonitor": 4675,
      "Ġstore": 4676,
      "ĠHuman": 4677,
      "ĠMag": 4678,
      "ishes": 4679,
      "ĠHistor": 4680,
      "utive": 4681,
      "Ġ1996": 4682,
      "ially": 4683,
      "def": 4684,
      "Ġbehavi": 4685,
      "clusion": 4686,
      "Ġplanet": 4687,
      "ĠDirect": 4688,
      "ki": 4689,
      "Ġexposure": 4690,
      "Ġmeasures": 4691,
      "ĠRob": 4692,
      "ags": 4693,
      "Ġdistinct": 4694,
      "Ġmere": 4695,
      "ĠAN": 4696,
      "Ġpreviously": 4697,
      "ĠScot": 4698,
      "Ġclosed": 4699,
      "ĠRussian": 4700,
      "Ġbow": 4701,
      "Ġbacteria": 4702,
      "ĠLand": 4703,
      "Ġdoubt": 4704,
      "ĠSom": 4705,
      "ĠMexico": 4706,
      "ĠPost": 4707,
      "ras": 4708,
      "otes": 4709,
      "Ġmaintain": 4710,
      "Ġinfect": 4711,
      "Ġupper": 4712,
      "ĠMichael": 4713,
      "ĠFrank": 4714,
      "Ġregions": 4715,
      "\"]": 4716,
      "Ġfeeling": 4717,
      "ĠJud": 4718,
      "ĠLake": 4719,
      "Ġid": 4720,
      "ixt": 4721,
      "Ġtried": 4722,
      "Ġteach": 4723,
      "cher": 4724,
      "Ġcomfort": 4725,
      "ĠChildren": 4726,
      "arp": 4727,
      "ĠTrue": 4728,
      "Ġrecords": 4729,
      "Ġremoved": 4730,
      "Ġevolution": 4731,
      "Ġfinally": 4732,
      "ka": 4733,
      "Ġrelatively": 4734,
      "ĠIreland": 4735,
      "Ġbottom": 4736,
      "what": 4737,
      "Ġgraph": 4738,
      "Ġoffered": 4739,
      "enced": 4740,
      "ĠBen": 4741,
      "arrow": 4742,
      "ado": 4743,
      "Ġfounded": 4744,
      "ĠVict": 4745,
      "Ġstraight": 4746,
      "ping": 4747,
      "ĠWork": 4748,
      "Ġstone": 4749,
      "Ġsatis": 4750,
      "Ġsugar": 4751,
      "ĠKh": 4752,
      "Ġselect": 4753,
      "do": 4754,
      "Ġdefined": 4755,
      "Ġpregn": 4756,
      "ĠBrown": 4757,
      "âĢĿ.": 4758,
      "orrow": 4759,
      "Ġinstruct": 4760,
      "ĠOb": 4761,
      "64": 4762,
      "Ġstructures": 4763,
      "Con": 4764,
      "ĠAnn": 4765,
      "cons": 4766,
      "Ġforced": 4767,
      "ĠLeg": 4768,
      "Ġdu": 4769,
      "ION": 4770,
      "Ġcontribut": 4771,
      "Ġsubsequ": 4772,
      "Ġliber": 4773,
      "Ġintellig": 4774,
      "ologist": 4775,
      "None": 4776,
      "ĠInf": 4777,
      "works": 4778,
      "Ġrecommend": 4779,
      "Ġreferred": 4780,
      "34": 4781,
      "?;": 4782,
      "ĠForm": 4783,
      "ache": 4784,
      "ĠStep": 4785,
      "ulf": 4786,
      "ĠEnvironment": 4787,
      "Ġcollabor": 4788,
      "Ġded": 4789,
      "ING": 4790,
      "Ġdrugs": 4791,
      "Ġdifferences": 4792,
      "Ġbirths": 4793,
      "CO": 4794,
      "Ġsigns": 4795,
      "Ġthick": 4796,
      "Ġmetal": 4797,
      "Ġaward": 4798,
      "dict": 4799,
      "anned": 4800,
      "Ġpractices": 4801,
      "Ġmostly": 4802,
      "param": 4803,
      "Ġbright": 4804,
      "ules": 4805,
      "Ġdetails": 4806,
      "ĠPlan": 4807,
      "hi": 4808,
      "Ġyouth": 4809,
      "Ġreligion": 4810,
      "ĠParty": 4811,
      "ĠBoth": 4812,
      "ĠMo": 4813,
      "Ġcharge": 4814,
      "ĠDivision": 4815,
      "oviet": 4816,
      "Ġ2020": 4817,
      "alle": 4818,
      "Ġos": 4819,
      "ĠBritain": 4820,
      "Ġtwenty": 4821,
      "gress": 4822,
      "ĠConst": 4823,
      "ĠMedic": 4824,
      "vis": 4825,
      "Ġtherapy": 4826,
      "Ġmentioned": 4827,
      "anging": 4828,
      "Ġrot": 4829,
      "Ġ2019": 4830,
      "Ġwindow": 4831,
      "down": 4832,
      "ĠOh": 4833,
      "Ġusers": 4834,
      "ĠRail": 4835,
      "ota": 4836,
      "Ġthee": 4837,
      "ĠAsia": 4838,
      "ĠUN": 4839,
      "Ġinterp": 4840,
      "76": 4841,
      "Ġoperation": 4842,
      "Ġoriginally": 4843,
      "Ġtouch": 4844,
      "Ġreference": 4845,
      "Ġdetermined": 4846,
      "Ġactual": 4847,
      "Ġoffers": 4848,
      "Ġfrequently": 4849,
      "Ġdetect": 4850,
      "related": 4851,
      "Ġhit": 4852,
      "Ġgenetic": 4853,
      "Ġlatter": 4854,
      "Ġsight": 4855,
      "Ġlabel": 4856,
      "ĠParis": 4857,
      "Ġkill": 4858,
      "ĠElect": 4859,
      "Ġspot": 4860,
      "that": 4861,
      "Error": 4862,
      "ĠDevelopment": 4863,
      "gs": 4864,
      "nce": 4865,
      "ĠCup": 4866,
      "Ġ80": 4867,
      "Ġlic": 4868,
      "ĠWomen": 4869,
      "ĠLike": 4870,
      "ĠOF": 4871,
      "uthors": 4872,
      "ĠEarly": 4873,
      "ented": 4874,
      "ĠOrgan": 4875,
      "Ġnotes": 4876,
      "Ġdrive": 4877,
      "Ġtill": 4878,
      "Ġannual": 4879,
      "----------------": 4880,
      "Ġpun": 4881,
      "Ġfloor": 4882,
      "oper": 4883,
      "Ġbodies": 4884,
      "ĠSing": 4885,
      "Ġhelped": 4886,
      "Ġeveryone": 4887,
      "Ġgoals": 4888,
      "ĠLatin": 4889,
      "He": 4890,
      "Ġcounter": 4891,
      "Ġconducted": 4892,
      "Ġstarting": 4893,
      "format": 4894,
      "Ġentered": 4895,
      "ses": 4896,
      "ĠGood": 4897,
      "ĠĠĠĠĠĠĠĠĠ": 4898,
      "Ġdouble": 4899,
      "Ġliterature": 4900,
      "ĠBet": 4901,
      "Ġcolumn": 4902,
      "gest": 4903,
      "Ġdiss": 4904,
      "ishing": 4905,
      "Ġconnected": 4906,
      "ĠToday": 4907,
      "Ġroll": 4908,
      "ĠJews": 4909,
      "ĠCy": 4910,
      "Ġauthority": 4911,
      "idel": 4912,
      "ĠTor": 4913,
      "Ġsupported": 4914,
      "Ġenh": 4915,
      "ĠIslam": 4916,
      "Ġorganizations": 4917,
      "eding": 4918,
      "claim": 4919,
      "Ġtor": 4920,
      "ĠDel": 4921,
      "Ġvolume": 4922,
      "ĠKingdom": 4923,
      "edy": 4924,
      "Ġunivers": 4925,
      "Ġ1995": 4926,
      "rence": 4927,
      "39": 4928,
      "ĠGra": 4929,
      "Ġthousands": 4930,
      "iced": 4931,
      "55": 4932,
      "rehens": 4933,
      "ĠAngel": 4934,
      "Ġproposed": 4935,
      "Ġgain": 4936,
      "Ġstim": 4937,
      "ĠTer": 4938,
      "ographic": 4939,
      "rd": 4940,
      "ogle": 4941,
      "Ġleader": 4942,
      "Ġforth": 4943,
      "Ġcharg": 4944,
      "rm": 4945,
      "Ġcomment": 4946,
      "oat": 4947,
      "Ġpoet": 4948,
      "Ġprepar": 4949,
      "Ġsen": 4950,
      "rome": 4951,
      "Ġgrass": 4952,
      "ĠColumb": 4953,
      "rates": 4954,
      "Ġ31": 4955,
      "Ġvoc": 4956,
      "dir": 4957,
      "inn": 4958,
      "Ġcorrespond": 4959,
      "ĠNews": 4960,
      "Ġdistribution": 4961,
      "Ġyellow": 4962,
      "anged": 4963,
      "Ġleaving": 4964,
      "Ġcreation": 4965,
      "ĠWind": 4966,
      "Ġsand": 4967,
      "ĠTV": 4968,
      "ĠProject": 4969,
      "ĠChic": 4970,
      "Ġcere": 4971,
      "Ġpolice": 4972,
      "OT": 4973,
      "Ġhuge": 4974,
      "Ġhusband": 4975,
      "rum": 4976,
      "sembly": 4977,
      "Ġvision": 4978,
      "Ġfactor": 4979,
      "ĠSoviet": 4980,
      "ĠCivil": 4981,
      "dd": 4982,
      "ĠPac": 4983,
      "othing": 4984,
      "Ġrain": 4985,
      "rane": 4986,
      "Ġconnection": 4987,
      "ifically": 4988,
      "ĠInc": 4989,
      "Ġintended": 4990,
      "37": 4991,
      "igen": 4992,
      "hand": 4993,
      "Ġheight": 4994,
      "append": 4995,
      "Ġsurvey": 4996,
      "stitution": 4997,
      "Ġbrief": 4998,
      "tes": 4999,
      "Ġexplain": 5000,
      "ona": 5001,
      "gment": 5002,
      "Ġmel": 5003,
      "Ġextremely": 5004,
      "Ġabsor": 5005,
      "Ġtox": 5006,
      "from": 5007,
      "Ġeducational": 5008,
      "Ġwidely": 5009,
      "idden": 5010,
      "Ġgeneration": 5011,
      "ancing": 5012,
      "ishop": 5013,
      "return": 5014,
      "Ġmal": 5015,
      "Ġnav": 5016,
      "Ġresistance": 5017,
      "Ġresource": 5018,
      "Ġsample": 5019,
      "icated": 5020,
      "osy": 5021,
      "Ġestimated": 5022,
      "Ġrank": 5023,
      "ĠFrancis": 5024,
      "CC": 5025,
      "iable": 5026,
      "gr": 5027,
      "Ġindustrial": 5028,
      "Ġconver": 5029,
      "ĠFam": 5030,
      "cript": 5031,
      "RI": 5032,
      "cular": 5033,
      "ĠCommission": 5034,
      "Ġtreated": 5035,
      "la": 5036,
      "Ġreplace": 5037,
      "ta": 5038,
      "Ġillness": 5039,
      "ĠItalian": 5040,
      "poses": 5041,
      "ĠBill": 5042,
      "Ġsquare": 5043,
      "ĠLu": 5044,
      "war": 5045,
      "Ġpersons": 5046,
      "Ġsend": 5047,
      "ĠInternet": 5048,
      "Ġflood": 5049,
      "Ġparam": 5050,
      "Ġsetting": 5051,
      "Ġstations": 5052,
      "But": 5053,
      "Ġnuclear": 5054,
      "Ġletters": 5055,
      "onic": 5056,
      "TER": 5057,
      "Ġclasses": 5058,
      "ĠCH": 5059,
      "Ġbuy": 5060,
      "lease": 5061,
      "uing": 5062,
      "Ġroot": 5063,
      "Ġgar": 5064,
      "Ġ1960": 5065,
      "ĠFre": 5066,
      "Ġurban": 5067,
      "ĠMer": 5068,
      "Ġconfig": 5069,
      "Ġrow": 5070,
      "Ġcontrast": 5071,
      "Ġconclud": 5072,
      "Ġlanguages": 5073,
      "utch": 5074,
      "len": 5075,
      "Ġplease": 5076,
      "eless": 5077,
      "Ġadvantage": 5078,
      "Ġ1994": 5079,
      "ĠKore": 5080,
      "Ġadvanced": 5081,
      "Ġoptions": 5082,
      "night": 5083,
      "ĠJoseph": 5084,
      "Ġ(\"": 5085,
      "ĠSol": 5086,
      "abase": 5087,
      "ĠHam": 5088,
      "Ġitems": 5089,
      "ĠDu": 5090,
      "Ġ`": 5091,
      "PS": 5092,
      "Ġphen": 5093,
      "Ġplatform": 5094,
      "ĠWrit": 5095,
      "Ġpossess": 5096,
      "Ġhouses": 5097,
      "rieved": 5098,
      "abilities": 5099,
      "Ġwealth": 5100,
      "Ġcomponents": 5101,
      "Ġelection": 5102,
      "Ġplanning": 5103,
      "ipe": 5104,
      "Ġmo": 5105,
      "OS": 5106,
      "Ġsufficient": 5107,
      "Ġhappened": 5108,
      "Ġscen": 5109,
      "ĠProt": 5110,
      "Ġyield": 5111,
      "Ġhappen": 5112,
      "ĠCamp": 5113,
      "osen": 5114,
      "31": 5115,
      "Ġemphas": 5116,
      "ĠMusic": 5117,
      "ĠMat": 5118,
      "44": 5119,
      "ĠTem": 5120,
      "Ġinsect": 5121,
      "Ġshot": 5122,
      "ĠAcademy": 5123,
      "Ġremove": 5124,
      "ĠIll": 5125,
      "ingly": 5126,
      "Ġprefer": 5127,
      "Ġmedicine": 5128,
      "Ġremark": 5129,
      "Ex": 5130,
      "anguage": 5131,
      "Ġpatterns": 5132,
      "itar": 5133,
      "Ġincreases": 5134,
      "Ġmilk": 5135,
      "Ġ35": 5136,
      "pective": 5137,
      "ĠRo": 5138,
      "ĠItaly": 5139,
      "Ġpolic": 5140,
      "izer": 5141,
      "ĠTherefore": 5142,
      "comm": 5143,
      "Ġpieces": 5144,
      "Ġalcohol": 5145,
      "Ġmotion": 5146,
      "Ġguide": 5147,
      "Ġpil": 5148,
      "Ġoccasion": 5149,
      "__(": 5150,
      "Ar": 5151,
      "ĠCare": 5152,
      "Ġoccurred": 5153,
      "rier": 5154,
      "Ġprepared": 5155,
      "Ġstorm": 5156,
      "Ġvalid": 5157,
      "ĠVirginia": 5158,
      "ĠAD": 5159,
      "ĠSk": 5160,
      "teen": 5161,
      "Ġviolence": 5162,
      "ĠAny": 5163,
      "Ġexperiment": 5164,
      "ossible": 5165,
      "Ġbalance": 5166,
      "Ġfreedom": 5167,
      "Ġresulting": 5168,
      "ĠWhere": 5169,
      "etime": 5170,
      "Ġstated": 5171,
      "Ġdiabetes": 5172,
      "'m": 5173,
      "aud": 5174,
      "ĠCD": 5175,
      "ĠConf": 5176,
      "Ġbes": 5177,
      "Ġincome": 5178,
      "ĠFoot": 5179,
      "____": 5180,
      "Ġexactly": 5181,
      "Ġapply": 5182,
      "Ġfirm": 5183,
      "Ġelim": 5184,
      "ĠSuper": 5185,
      "Ġcra": 5186,
      "Ġexcess": 5187,
      "ails": 5188,
      "Ġmort": 5189,
      "Ġweap": 5190,
      "Ġsuc": 5191,
      "Ġbackground": 5192,
      "ĠAbout": 5193,
      "Ġfailure": 5194,
      "tical": 5195,
      "Ġsoldiers": 5196,
      "Ġsignal": 5197,
      ".;": 5198,
      "Ġ90": 5199,
      "ĠSea": 5200,
      "ĠRome": 5201,
      "osite": 5202,
      "77": 5203,
      "iverse": 5204,
      "Ġbone": 5205,
      "which": 5206,
      "ulum": 5207,
      "ĠCast": 5208,
      "Ġpros": 5209,
      "Ġhousehold": 5210,
      "lamm": 5211,
      "ora": 5212,
      "inst": 5213,
      "asks": 5214,
      "Ġformat": 5215,
      "raction": 5216,
      "Ġsusp": 5217,
      "Ġsin": 5218,
      "ĠFlorida": 5219,
      "nic": 5220,
      "norm": 5221,
      "ĠNAS": 5222,
      "Ġaircraft": 5223,
      "oned": 5224,
      "ĠBre": 5225,
      "Ġliqu": 5226,
      "ĠPhys": 5227,
      "azine": 5228,
      "Ġefficient": 5229,
      "Ġdegrees": 5230,
      "ifying": 5231,
      "Pro": 5232,
      "ada": 5233,
      "UT": 5234,
      "ocol": 5235,
      "Ġsnow": 5236,
      "ructure": 5237,
      "ĠBefore": 5238,
      "ĠCap": 5239,
      "Ġpy": 5240,
      "Ġexistence": 5241,
      "Ġbatter": 5242,
      "Ġeffic": 5243,
      "ĠFe": 5244,
      "Ġtransform": 5245,
      "ala": 5246,
      "Ġreplaced": 5247,
      "Ġsexual": 5248,
      "Ġwestern": 5249,
      "Ġgirls": 5250,
      "Ġreality": 5251,
      "ĠNorthern": 5252,
      "Ġmunicip": 5253,
      "Ġpretty": 5254,
      "Ġdecades": 5255,
      "Ġtaught": 5256,
      "ĠGrand": 5257,
      "itors": 5258,
      "Ġfinished": 5259,
      "Ġsuggests": 5260,
      "65": 5261,
      "Ġapparent": 5262,
      "anta": 5263,
      "ĠCommon": 5264,
      "Ġ70": 5265,
      "Ġtissue": 5266,
      "Ġvary": 5267,
      "Ġwriter": 5268,
      "Ġopening": 5269,
      "Ġkid": 5270,
      "Ġunc": 5271,
      "abel": 5272,
      "ĠBC": 5273,
      "Ġfinding": 5274,
      "Ġlayer": 5275,
      "ĠFood": 5276,
      "ĠST": 5277,
      "Ġdepart": 5278,
      "Ġclearly": 5279,
      "Ġalternative": 5280,
      "Ġfro": 5281,
      "Ġsignificantly": 5282,
      "Ġcritic": 5283,
      "ena": 5284,
      "Ġfailed": 5285,
      "Ġopportunities": 5286,
      "ĠMuslim": 5287,
      "Ġcertainly": 5288,
      "ĠStudents": 5289,
      "Ġwaters": 5290,
      "ensus": 5291,
      "crib": 5292,
      "ĠWood": 5293,
      "ola": 5294,
      "ĠMel": 5295,
      "Ġnewsp": 5296,
      "Ġcircumst": 5297,
      "Ġdivided": 5298,
      "Ġsongs": 5299,
      "Ġ1992": 5300,
      "ĠLong": 5301,
      "roph": 5302,
      "ĠFig": 5303,
      "ini": 5304,
      "Ġexcell": 5305,
      "ĠWild": 5306,
      "ario": 5307,
      "eline": 5308,
      "'.": 5309,
      "'d": 5310,
      "Ġsuggested": 5311,
      "Ġpartners": 5312,
      "ĠClub": 5313,
      "Ġmountain": 5314,
      "da": 5315,
      "Ġcried": 5316,
      "urance": 5317,
      "uls": 5318,
      "Ġantib": 5319,
      "Ġwalls": 5320,
      "Ġinternal": 5321,
      "Ġnone": 5322,
      "ĠAward": 5323,
      "Ġdangerous": 5324,
      "Ġocean": 5325,
      "Ġinjury": 5326,
      "Ġimpl": 5327,
      "Ġsports": 5328,
      "Ġmainly": 5329,
      "ĠVictor": 5330,
      "Ġinnov": 5331,
      "If": 5332,
      "Ġcombination": 5333,
      "Ġhappy": 5334,
      "ygen": 5335,
      "ĠMiddle": 5336,
      "sub": 5337,
      "Ġmarriage": 5338,
      "ĠWho": 5339,
      "standing": 5340,
      "Ġhospital": 5341,
      "Ġsolid": 5342,
      "itz": 5343,
      "ĠPan": 5344,
      "Ġsweet": 5345,
      "Ġsigned": 5346,
      "Ġbroken": 5347,
      "Ġaid": 5348,
      "Ġstream": 5349,
      "LE": 5350,
      "Ġdistingu": 5351,
      "ements": 5352,
      "Ġfit": 5353,
      "Ġpaid": 5354,
      "Ġneighbor": 5355,
      "Ġtow": 5356,
      "fe": 5357,
      "Ġbear": 5358,
      "Ġpopulations": 5359,
      "Ġfindings": 5360,
      "Ġpages": 5361,
      "Ġtum": 5362,
      "Ġcontem": 5363,
      "Ġstreet": 5364,
      "peror": 5365,
      "Ġclim": 5366,
      "Ġgene": 5367,
      "ĠPenn": 5368,
      "opt": 5369,
      "ĠRussia": 5370,
      "Ġincorpor": 5371,
      "Ġvictim": 5372,
      "word": 5373,
      "ĠChicago": 5374,
      "Ġdoll": 5375,
      "Ġstock": 5376,
      "cel": 5377,
      "Ġmine": 5378,
      "ĠPacific": 5379,
      "Ġindex": 5380,
      "aph": 5381,
      "rich": 5382,
      "Ġvent": 5383,
      "Ġemissions": 5384,
      "ga": 5385,
      "Ġteams": 5386,
      "edd": 5387,
      "Ġsuppl": 5388,
      "Ġselected": 5389,
      "Â°": 5390,
      "Ġfert": 5391,
      "Ġremov": 5392,
      "Ġdisorder": 5393,
      "Ġgall": 5394,
      "Ġconsumption": 5395,
      "zy": 5396,
      "Ġacademic": 5397,
      "ĠAtt": 5398,
      "ourney": 5399,
      "Ġgets": 5400,
      "Ġutil": 5401,
      "Ġmotor": 5402,
      "Ġinterview": 5403,
      "Ġcausing": 5404,
      "ĠPop": 5405,
      "Ġstatement": 5406,
      "Ġappointed": 5407,
      "oting": 5408,
      "ĠOx": 5409,
      "kins": 5410,
      "hetic": 5411,
      "Ġhun": 5412,
      "Ġlooks": 5413,
      "Ġnotice": 5414,
      "Ġgrew": 5415,
      "irty": 5416,
      "bal": 5417,
      "Ġarticles": 5418,
      "ĠEngine": 5419,
      "pected": 5420,
      "bur": 5421,
      "atever": 5422,
      "Ġrequirements": 5423,
      "Ġdin": 5424,
      "Ġgreatest": 5425,
      "ĠSuch": 5426,
      "'],": 5427,
      "ĠRock": 5428,
      "Ġinstitutions": 5429,
      "ĠStand": 5430,
      "Ġseed": 5431,
      "Ġcoal": 5432,
      "zen": 5433,
      "ĠPers": 5434,
      "ĠFollow": 5435,
      "inet": 5436,
      "ologists": 5437,
      "ican": 5438,
      "run": 5439,
      "config": 5440,
      "Ġdogs": 5441,
      "icks": 5442,
      "Ġhomes": 5443,
      "Ġcycle": 5444,
      "Ġdefault": 5445,
      "Ġseek": 5446,
      "Ġbird": 5447,
      "Ġprofessor": 5448,
      "under": 5449,
      "Ġdear": 5450,
      "Ġprem": 5451,
      "isters": 5452,
      "UR": 5453,
      "XX": 5454,
      "Ġsoul": 5455,
      "Ġnarrow": 5456,
      "rosc": 5457,
      "Ġtroops": 5458,
      "bi": 5459,
      "greg": 5460,
      "ĠIrish": 5461,
      "position": 5462,
      "Ġrough": 5463,
      "ye": 5464,
      "trans": 5465,
      "Ġsides": 5466,
      "Ġauthors": 5467,
      "ceeded": 5468,
      "Ġhur": 5469,
      "pping": 5470,
      "Ġshut": 5471,
      "olars": 5472,
      "Ġcombined": 5473,
      "Ġstars": 5474,
      "ĠFort": 5475,
      "gu": 5476,
      "79": 5477,
      "ĠMill": 5478,
      "taining": 5479,
      "ĠIN": 5480,
      "Ġowners": 5481,
      "ĠZeal": 5482,
      "uations": 5483,
      "ocratic": 5484,
      "Ġbegins": 5485,
      "ushed": 5486,
      "Americ": 5487,
      "46": 5488,
      "49": 5489,
      "akers": 5490,
      "Ġevening": 5491,
      "01": 5492,
      "lements": 5493,
      "ĠYet": 5494,
      "dis": 5495,
      "mas": 5496,
      "Ġsyn": 5497,
      "Ġportion": 5498,
      "Ġ185": 5499,
      "Ġcontaining": 5500,
      "ĠVer": 5501,
      "Ġ1993": 5502,
      "Cl": 5503,
      "ieties": 5504,
      "Ġfilled": 5505,
      "ĠEmpire": 5506,
      "bar": 5507,
      "orter": 5508,
      "ĠMen": 5509,
      "Ġotherwise": 5510,
      "Ġinterested": 5511,
      "ipped": 5512,
      "Ġadm": 5513,
      "Ġrand": 5514,
      "max": 5515,
      "rey": 5516,
      "ĠThrough": 5517,
      "Ġmanufacture": 5518,
      "Ġflight": 5519,
      "Ġforg": 5520,
      "ĠPet": 5521,
      "Ġnine": 5522,
      "Ġimmune": 5523,
      "Ġnations": 5524,
      "Ġanyone": 5525,
      "ĠCre": 5526,
      "Ġprimarily": 5527,
      "Ġchallenge": 5528,
      "Ġlargely": 5529,
      "Ġexplore": 5530,
      "Ġadvance": 5531,
      "ĠBudd": 5532,
      "Ġneither": 5533,
      "Ġchanging": 5534,
      "cers": 5535,
      "Ġflowers": 5536,
      "Ġconsult": 5537,
      "ĠMa": 5538,
      "Ġamb": 5539,
      "Ġdescription": 5540,
      "ĠCat": 5541,
      "Ġerror": 5542,
      "ĠZealand": 5543,
      "pes": 5544,
      "Ġ1991": 5545,
      "ĠIII": 5546,
      "Ġcore": 5547,
      "Ġdiscover": 5548,
      "Ġisol": 5549,
      "Ġexperiences": 5550,
      "DA": 5551,
      "Ġmathemat": 5552,
      "Ġtrial": 5553,
      "Ġlen": 5554,
      "Ġregarding": 5555,
      "Ġrecommended": 5556,
      "Ġchart": 5557,
      "iform": 5558,
      "appe": 5559,
      "Ġprinciples": 5560,
      "''": 5561,
      "ĠSil": 5562,
      "Ġinstall": 5563,
      "itan": 5564,
      "Ġarrived": 5565,
      "Ġrepeated": 5566,
      "Ġemp": 5567,
      "Ġmuscle": 5568,
      "Ġreprodu": 5569,
      "Ġaspects": 5570,
      "ĠMedical": 5571,
      "ĠMartin": 5572,
      "ella": 5573,
      "Ġmic": 5574,
      "gal": 5575,
      "ORD": 5576,
      "orses": 5577,
      "Ġhearing": 5578,
      "Ġstret": 5579,
      "Ġstudied": 5580,
      "Ġopinion": 5581,
      "Ġcandid": 5582,
      "Ġdirected": 5583,
      "Ġdepression": 5584,
      "anda": 5585,
      "Ġdial": 5586,
      "Ġclinical": 5587,
      "Ġconflict": 5588,
      "ashion": 5589,
      "ĠSouthern": 5590,
      "ĠKar": 5591,
      "ĠSupp": 5592,
      "rition": 5593,
      "47": 5594,
      "Ġthoughts": 5595,
      "aks": 5596,
      "Ġfollows": 5597,
      "Ġdiscussion": 5598,
      "Ġentirely": 5599,
      "atically": 5600,
      "anges": 5601,
      "Ġpra": 5602,
      "ĠProfessor": 5603,
      "Ġsynt": 5604,
      "Ġperman": 5605,
      "Ġobtained": 5606,
      "Ġcoord": 5607,
      "va": 5608,
      "SA": 5609,
      "igration": 5610,
      "Ġabsol": 5611,
      "venue": 5612,
      "Ġconsists": 5613,
      "ĠGeorg": 5614,
      "ĠGet": 5615,
      "Ġstorage": 5616,
      "ĠEconom": 5617,
      "ums": 5618,
      "Ġdescribe": 5619,
      "'),": 5620,
      "ĠHill": 5621,
      "ĠScient": 5622,
      "oking": 5623,
      "Ġstanding": 5624,
      "Ġnutri": 5625,
      "ĠGal": 5626,
      "Ġrose": 5627,
      "Ġflat": 5628,
      "ua": 5629,
      "aked": 5630,
      "Ġsister": 5631,
      "Ġdespite": 5632,
      "ĠOnly": 5633,
      "Ġconc": 5634,
      "Ġchallenges": 5635,
      "Ġeasier": 5636,
      "():": 5637,
      "thlet": 5638,
      "Ġcontinues": 5639,
      "iox": 5640,
      "Ġengineering": 5641,
      "emb": 5642,
      "ĠBuild": 5643,
      "Ġprincip": 5644,
      "ĠDet": 5645,
      "ĠTime": 5646,
      "Ġsick": 5647,
      "ME": 5648,
      "Ġbill": 5649,
      "Ġcenturies": 5650,
      "ĠTechnology": 5651,
      "rics": 5652,
      "Ġextended": 5653,
      "ĠDespite": 5654,
      "Ġremaining": 5655,
      "ĠHaw": 5656,
      "Ġunknown": 5657,
      "Ġelected": 5658,
      "ĠPub": 5659,
      "Ġinterpret": 5660,
      "ĠSpain": 5661,
      "Ġelectricity": 5662,
      "ita": 5663,
      "Ġlaid": 5664,
      "osc": 5665,
      "print": 5666,
      "Ġscene": 5667,
      "long": 5668,
      "ĠSpace": 5669,
      "Ġinvolve": 5670,
      "Ġcharacteristics": 5671,
      "ĠCamb": 5672,
      "Ġsubjects": 5673,
      "Ġleads": 5674,
      "ĠMain": 5675,
      "Ġended": 5676,
      "stood": 5677,
      "Ġformation": 5678,
      "Ġextent": 5679,
      "cell": 5680,
      "Ġexposed": 5681,
      "Ġrelative": 5682,
      "apes": 5683,
      "ĠCapt": 5684,
      "Ġlit": 5685,
      "ĠWhe": 5686,
      "Ġslowly": 5687,
      "Ġaccepted": 5688,
      "ĠUsing": 5689,
      "Ġcris": 5690,
      "code": 5691,
      "ĠTim": 5692,
      "care": 5693,
      "grad": 5694,
      "iveness": 5695,
      "orough": 5696,
      "Ġtechnologies": 5697,
      "Ġfiles": 5698,
      "Ġchair": 5699,
      "Ġrandom": 5700,
      "gent": 5701,
      "Ġdecisions": 5702,
      "Ġclassroom": 5703,
      "alls": 5704,
      "een": 5705,
      "obs": 5706,
      "otic": 5707,
      "Ġdomestic": 5708,
      "Ġthin": 5709,
      "Ġmeat": 5710,
      "model": 5711,
      "Ġbridge": 5712,
      "Ġpolicies": 5713,
      "Ġoption": 5714,
      "ĠFoundation": 5715,
      "Ġtechnique": 5716,
      "Ġcomplic": 5717,
      "rors": 5718,
      "Ġpric": 5719,
      "ette": 5720,
      "Ġwet": 5721,
      "const": 5722,
      "Ġvast": 5723,
      "Ġedge": 5724,
      "ĠLiving": 5725,
      "Ġanswered": 5726,
      "rations": 5727,
      "Ġstrategies": 5728,
      "oured": 5729,
      "roke": 5730,
      "index": 5731,
      "Ġpurposes": 5732,
      "emic": 5733,
      "Ġrecognized": 5734,
      "ĠData": 5735,
      "Ġprofession": 5736,
      "Ġenemy": 5737,
      "ĠAut": 5738,
      "ava": 5739,
      "Ġroute": 5740,
      "Ġphase": 5741,
      "Ġtopic": 5742,
      "Ġtrig": 5743,
      "ĠLibrary": 5744,
      "Ġstring": 5745,
      "Ġradiation": 5746,
      "ĠBest": 5747,
      "Ġmix": 5748,
      "Ġreplied": 5749,
      "unc": 5750,
      "Ġoperating": 5751,
      "Ġcrow": 5752,
      "ceived": 5753,
      "Ġelev": 5754,
      "nect": 5755,
      "Ġfacilities": 5756,
      "ĠAddition": 5757,
      "Al": 5758,
      "nergy": 5759,
      "Ġexperienced": 5760,
      "Ġruns": 5761,
      "Ġallowing": 5762,
      "ĠQueen": 5763,
      "ĠRecords": 5764,
      "Ġ45": 5765,
      "ĠEnd": 5766,
      "Ġcentre": 5767,
      "ĠTop": 5768,
      "ĠChampionship": 5769,
      "Ġbrown": 5770,
      "Ġreform": 5771,
      "Ġfixed": 5772,
      "Ġmir": 5773,
      "Ġlandsc": 5774,
      "Ġadjust": 5775,
      "Ġattend": 5776,
      "Ġsilver": 5777,
      "ato": 5778,
      "ĠDen": 5779,
      "Ġpoly": 5780,
      "flow": 5781,
      "Ġslightly": 5782,
      "Ġlisted": 5783,
      "Ġatmosphere": 5784,
      "ĠValley": 5785,
      "Ġbond": 5786,
      "Ġcamer": 5787,
      "An": 5788,
      "ĠFederal": 5789,
      "cription": 5790,
      "Ġdivision": 5791,
      "ester": 5792,
      "Ġreaction": 5793,
      "Ġsurgery": 5794,
      "IR": 5795,
      "ĠJo": 5796,
      "Ġquiet": 5797,
      "ĠHIV": 5798,
      "zil": 5799,
      "Ġorganic": 5800,
      "oral": 5801,
      "ĠRetrieved": 5802,
      "ategy": 5803,
      "Ġshared": 5804,
      "Ġhonor": 5805,
      "ĠReport": 5806,
      "Ġdisorders": 5807,
      "Is": 5808,
      "Ġconstant": 5809,
      "Ġrepresented": 5810,
      "?âĢĻ": 5811,
      "ĠBible": 5812,
      "enses": 5813,
      "Ġexplained": 5814,
      "ĠJim": 5815,
      "ĠFalse": 5816,
      "Ġshowing": 5817,
      "Ġsole": 5818,
      "ĠTown": 5819,
      "Ġlady": 5820,
      "Ġimpossible": 5821,
      "illa": 5822,
      "top": 5823,
      "Ġvul": 5824,
      "qual": 5825,
      "Ġships": 5826,
      "Ġjustice": 5827,
      "Ġlose": 5828,
      "ears": 5829,
      "stream": 5830,
      "ĠInformation": 5831,
      "========": 5832,
      "Ġplastic": 5833,
      "MS": 5834,
      "Ġcredit": 5835,
      "estival": 5836,
      "Ġsurrounding": 5837,
      "htt": 5838,
      "05": 5839,
      "awn": 5840,
      "acing": 5841,
      "Ġoxygen": 5842,
      "ĠCommittee": 5843,
      "info": 5844,
      "iously": 5845,
      "âĢĿ,": 5846,
      "Ġencourage": 5847,
      "ĠNASA": 5848,
      "ĠBig": 5849,
      "iders": 5850,
      "ĠPo": 5851,
      "box": 5852,
      "ĠHome": 5853,
      "....": 5854,
      "Ġschem": 5855,
      "user": 5856,
      "Ġaccompl": 5857,
      "Ġdesire": 5858,
      "Ġattacks": 5859,
      "agon": 5860,
      "Ġsymbol": 5861,
      "pat": 5862,
      "Ġproport": 5863,
      "host": 5864,
      "heast": 5865,
      "stone": 5866,
      "66": 5867,
      "Ġproperly": 5868,
      "Ġfourth": 5869,
      "vin": 5870,
      "ĠOper": 5871,
      "Ġhung": 5872,
      "Ġmoon": 5873,
      "ĠStr": 5874,
      "Ġjourney": 5875,
      "ĠDou": 5876,
      "othe": 5877,
      "AA": 5878,
      "ĠBab": 5879,
      "Ġimproved": 5880,
      "new": 5881,
      "ĠMur": 5882,
      "Ġpure": 5883,
      "Ġtemperatures": 5884,
      "Ġchronic": 5885,
      "Ġartists": 5886,
      "apping": 5887,
      "Ġcouple": 5888,
      "Ġlie": 5889,
      "ket": 5890,
      "Ġseeing": 5891,
      "ĠMinister": 5892,
      "Ġfamiliar": 5893,
      "Ġparties": 5894,
      "Ġobvious": 5895,
      "ilit": 5896,
      "Ġtwice": 5897,
      "ĠOffice": 5898,
      "Ġsir": 5899,
      "Ġkeeping": 5900,
      "Ġtal": 5901,
      "ĠEastern": 5902,
      "ooth": 5903,
      "ĠSqu": 5904,
      "lers": 5905,
      "Ġclosely": 5906,
      "df": 5907,
      "ads": 5908,
      "ĠOffic": 5909,
      "ensions": 5910,
      "ĠImp": 5911,
      "ĠStudies": 5912,
      "ĠScotland": 5913,
      "last": 5914,
      "Ġgoods": 5915,
      "Ġimper": 5916,
      "Ġdrinking": 5917,
      "ĠId": 5918,
      "Ġcogn": 5919,
      "Ġconcern": 5920,
      "otion": 5921,
      "Ġadopted": 5922,
      "ĠYoung": 5923,
      "Ġcollected": 5924,
      "Ġdefinition": 5925,
      "Ġshel": 5926,
      "################": 5927,
      "look": 5928,
      "ching": 5929,
      "ellect": 5930,
      "num": 5931,
      "atre": 5932,
      "ĠThree": 5933,
      "Ġwriters": 5934,
      "Ġpromote": 5935,
      "ĠBus": 5936,
      "ĠDar": 5937,
      "Ġcalc": 5938,
      "Ġlinked": 5939,
      "Ġ!": 5940,
      "ansion": 5941,
      "ĠBack": 5942,
      "ĠCult": 5943,
      "Ġagreed": 5944,
      "eper": 5945,
      "Ġnerv": 5946,
      "Ġofficials": 5947,
      "ĠTimes": 5948,
      "Ġalg": 5949,
      "Ġgrown": 5950,
      "ih": 5951,
      "Ġargument": 5952,
      "Ġrenew": 5953,
      "Ġspeaking": 5954,
      "Ġcompetition": 5955,
      "Ġmarked": 5956,
      "heim": 5957,
      "Ġlaun": 5958,
      "Ġdeclared": 5959,
      "Ġfrequency": 5960,
      "ĠPower": 5961,
      "inity": 5962,
      "Ġtalking": 5963,
      "ĠFred": 5964,
      "LA": 5965,
      "Ġhero": 5966,
      "There": 5967,
      "ocation": 5968,
      "rot": 5969,
      "Ġprocessing": 5970,
      "Ġfrag": 5971,
      "ĠCarolina": 5972,
      "95": 5973,
      "ĠBank": 5974,
      "Ġidentity": 5975,
      "42": 5976,
      "Ġsan": 5977,
      "ĠFour": 5978,
      "url": 5979,
      "ĠSpr": 5980,
      "inding": 5981,
      "Ġstrategy": 5982,
      "Ġscore": 5983,
      "oto": 5984,
      "aturally": 5985,
      "Ġgenes": 5986,
      "Ġcomprehens": 5987,
      "Ġsalt": 5988,
      "ĠSwed": 5989,
      "ĠRh": 5990,
      "Ġartist": 5991,
      "Ġexplan": 5992,
      "Ġpaint": 5993,
      "level": 5994,
      "Ġtechnical": 5995,
      "Ġ1950": 5996,
      "Ġsamples": 5997,
      "igan": 5998,
      "Ġban": 5999,
      "Ġrevolution": 6000,
      "Ġbud": 6001,
      "Ġassessment": 6002,
      "Ġinterests": 6003,
      "Ġdestroyed": 6004,
      "rix": 6005,
      "Ġboys": 6006,
      "Ġbrand": 6007,
      "Ġneck": 6008,
      "Ġopposite": 6009,
      "Ġviews": 6010,
      "Ġeld": 6011,
      "Ġclick": 6012,
      "ndrome": 6013,
      "Ġlies": 6014,
      "ĠCa": 6015,
      "Ġpit": 6016,
      "Ġdiam": 6017,
      "Ġlibrary": 6018,
      "Ġexcellent": 6019,
      "ĠReview": 6020,
      "action": 6021,
      "Ġhappens": 6022,
      "uable": 6023,
      "Ġparticipants": 6024,
      "Ġgrade": 6025,
      "ĠJul": 6026,
      "eria": 6027,
      "Ġseat": 6028,
      "ĠSaint": 6029,
      "Ġpractical": 6030,
      "ounded": 6031,
      "Ġextreme": 6032,
      "ĠBir": 6033,
      "Ġadvice": 6034,
      "False": 6035,
      "Ġwear": 6036,
      "hist": 6037,
      "ĠSund": 6038,
      "ĠForce": 6039,
      "unte": 6040,
      "BS": 6041,
      "Ġconservation": 6042,
      "Ġsounds": 6043,
      "ĠPak": 6044,
      "Ġrapidly": 6045,
      "Ġreducing": 6046,
      "74": 6047,
      "Ġclaims": 6048,
      "500": 6049,
      "inder": 6050,
      "ortunately": 6051,
      ".'": 6052,
      "ĠMedicine": 6053,
      "Ġfigures": 6054,
      "Ġdepending": 6055,
      "Ġinvolves": 6056,
      "Ġtrend": 6057,
      "active": 6058,
      "Ġrevealed": 6059,
      "osaur": 6060,
      "ogue": 6061,
      "lets": 6062,
      "Ġpair": 6063,
      "Ġsell": 6064,
      "ĠLab": 6065,
      "Ġrub": 6066,
      "ĠLos": 6067,
      "Ġtall": 6068,
      "Ġsky": 6069,
      "isp": 6070,
      "ĠEnergy": 6071,
      "rison": 6072,
      "ĠThough": 6073,
      "TS": 6074,
      "iana": 6075,
      "Ġtun": 6076,
      "Ġfacts": 6077,
      "osh": 6078,
      "Ġconvent": 6079,
      "OL": 6080,
      "Ġconcerns": 6081,
      "Ġexpressed": 6082,
      "Ġeggs": 6083,
      "ser": 6084,
      "Ġcalls": 6085,
      "Ġcart": 6086,
      "Ġeastern": 6087,
      "Ġ2021": 6088,
      "ĠThose": 6089,
      "Ġmath": 6090,
      "umin": 6091,
      "ĠAS": 6092,
      "Ġped": 6093,
      "Ġfoss": 6094,
      "Ġindicate": 6095,
      "Ġvehicle": 6096,
      "ĠMah": 6097,
      "Ġstrange": 6098,
      "Ġastron": 6099,
      "pass": 6100,
      "Ġspoke": 6101,
      "Ġunless": 6102,
      "roc": 6103,
      "Ġphenomen": 6104,
      "Ġfarmers": 6105,
      "roat": 6106,
      "Ġcorner": 6107,
      "Ġonto": 6108,
      "Ġmanaged": 6109,
      "ĠNote": 6110,
      "Ġtail": 6111,
      "Ġrelationships": 6112,
      "stein": 6113,
      "Ġrisks": 6114,
      "Ġtrouble": 6115,
      "ĠPlay": 6116,
      "Ġ1989": 6117,
      "Ġcircumstances": 6118,
      "Ġvitamin": 6119,
      "Ġkil": 6120,
      "going": 6121,
      "zing": 6122,
      "kes": 6123,
      "Ġplain": 6124,
      "ĠBoard": 6125,
      "Ġcup": 6126,
      "thon": 6127,
      "68": 6128,
      "Ġexpert": 6129,
      "Ġedition": 6130,
      "ĠPrince": 6131,
      "quar": 6132,
      "Ġapart": 6133,
      "ano": 6134,
      "osystem": 6135,
      "âĢľ": 6136,
      "lick": 6137,
      "ĠPerson": 6138,
      "reek": 6139,
      "ĠParliament": 6140,
      "uses": 6141,
      "Ġmanage": 6142,
      "Ġpossibly": 6143,
      "ĠBul": 6144,
      "ĠStar": 6145,
      "Oh": 6146,
      "Ġreject": 6147,
      "Ġchain": 6148,
      "Ġmaximum": 6149,
      "Ġadministration": 6150,
      "Ġsubstant": 6151,
      "Ġcab": 6152,
      "Ġcatch": 6153,
      "Ġven": 6154,
      "Ġlung": 6155,
      "Ġresidents": 6156,
      "Ġ['": 6157,
      "ĠEp": 6158,
      "Ġrefers": 6159,
      "Ġcert": 6160,
      "Ġsed": 6161,
      "how": 6162,
      "Ġdefic": 6163,
      "Ġjoin": 6164,
      "Ġbeat": 6165,
      "Ġprinciple": 6166,
      "Ġresist": 6167,
      "group": 6168,
      "lines": 6169,
      "Ġdress": 6170,
      "Ġru": 6171,
      "Ġtele": 6172,
      "ocked": 6173,
      "amental": 6174,
      "throp": 6175,
      "crete": 6176,
      "ĠBrazil": 6177,
      "Ġguard": 6178,
      "Ġsector": 6179,
      "Ġunderstood": 6180,
      "Ġsecondary": 6181,
      "weight": 6182,
      "Ġcrim": 6183,
      "uster": 6184,
      "ĠVis": 6185,
      "Ġcoach": 6186,
      "Ġknows": 6187,
      "Ġvan": 6188,
      "Ġshop": 6189,
      "Ġhelping": 6190,
      "cycl": 6191,
      "Ġamounts": 6192,
      "count": 6193,
      "wing": 6194,
      "asant": 6195,
      "agers": 6196,
      "ĠWal": 6197,
      "ĠColumbia": 6198,
      "Ġmuseum": 6199,
      "oston": 6200,
      "Ġagree": 6201,
      "Ġguitar": 6202,
      "Ġexternal": 6203,
      "ĠAmong": 6204,
      "asp": 6205,
      "Ġanxiety": 6206,
      "Ġhorses": 6207,
      "Ġwait": 6208,
      "([": 6209,
      "ught": 6210,
      "Ġsuddenly": 6211,
      "Ġexchange": 6212,
      "ĠEr": 6213,
      "ĠJac": 6214,
      "Ġera": 6215,
      "Ġoblig": 6216,
      "Ġspend": 6217,
      "ĠConstitution": 6218,
      "ulating": 6219,
      "Ġpromin": 6220,
      "ĠNature": 6221,
      "rame": 6222,
      "Ġcomposed": 6223,
      "Ġvisible": 6224,
      "Ġborder": 6225,
      "abled": 6226,
      "71": 6227,
      "roid": 6228,
      "Ġderived": 6229,
      "Ġspecifically": 6230,
      "comes": 6231,
      "Ġsupposed": 6232,
      "Ġrural": 6233,
      "mary": 6234,
      "ĠUSA": 6235,
      "ca": 6236,
      "object": 6237,
      "Ġsolutions": 6238,
      "Ġsets": 6239,
      "anger": 6240,
      "Ġcaught": 6241,
      "Ġlands": 6242,
      "aded": 6243,
      "That": 6244,
      "ĠSar": 6245,
      "Ġstopped": 6246,
      "Ġseeds": 6247,
      "Ġroof": 6248,
      "yal": 6249,
      "OD": 6250,
      "73": 6251,
      "ĠMajor": 6252,
      "Ġdeliver": 6253,
      "Ġescape": 6254,
      "ÂłÂłÂłÂł": 6255,
      "Ġ500": 6256,
      "pet": 6257,
      "Ġdynam": 6258,
      "Ġconscious": 6259,
      "43": 6260,
      "Ġplays": 6261,
      "ĠGall": 6262,
      "Ġpowers": 6263,
      "amber": 6264,
      "Ġworse": 6265,
      "Ġspiritual": 6266,
      "sm": 6267,
      "Ġregional": 6268,
      "Ġrelevant": 6269,
      "Ġtraffic": 6270,
      "Ġinsp": 6271,
      "itud": 6272,
      "oster": 6273,
      "Ġmoral": 6274,
      "ĠLabor": 6275,
      "ĠStat": 6276,
      "ĠAC": 6277,
      "Ġ->": 6278,
      "ĠĠĠĠĠĠĠĠĠĠĠĠĠĠĠĠĠĠĠĠĠĠĠĠ": 6279,
      "icon": 6280,
      "Ġagricultural": 6281,
      "bing": 6282,
      "ĠDutch": 6283,
      "Ġepisode": 6284,
      "Ġfeelings": 6285,
      "ĠInstead": 6286,
      "sk": 6287,
      "Ġkinds": 6288,
      "ĠFootball": 6289,
      "Ġhyper": 6290,
      "Ġgender": 6291,
      "yer": 6292,
      "Ġcapable": 6293,
      "ĠHoly": 6294,
      "Ġofficers": 6295,
      "Ġcomponent": 6296,
      "ół": 6297,
      "Ġ1988": 6298,
      "Ġtells": 6299,
      "iah": 6300,
      "Ġconcerned": 6301,
      "88": 6302,
      "ĠExt": 6303,
      "Ġeffectively": 6304,
      "hered": 6305,
      "riculum": 6306,
      "Ġpig": 6307,
      "Ġring": 6308,
      "Ġscholars": 6309,
      "Ġagreement": 6310,
      "Ġfighting": 6311,
      "rovers": 6312,
      "Ġideal": 6313,
      "American": 6314,
      "Ġplate": 6315,
      "Ġemail": 6316,
      "Ġwitness": 6317,
      "Ġresponsibility": 6318,
      "Un": 6319,
      "ĠRights": 6320,
      "irt": 6321,
      "Ġaccident": 6322,
      "Ġcars": 6323,
      "Ġhorm": 6324,
      "wargs": 6325,
      "Ġfocused": 6326,
      "ĠVen": 6327,
      "ĠMake": 6328,
      "Ġinstrument": 6329,
      "omic": 6330,
      "umes": 6331,
      "ighter": 6332,
      "ĠSecret": 6333,
      "Ġarrest": 6334,
      "ĠDec": 6335,
      "array": 6336,
      "Ġdiscovery": 6337,
      "oding": 6338,
      "Ġturning": 6339,
      "Ġsecure": 6340,
      "ĠColor": 6341,
      "ĠEdward": 6342,
      "Ġofficer": 6343,
      "ested": 6344,
      "Ġuniversity": 6345,
      "Ġpictures": 6346,
      "ĠPsych": 6347,
      "Ġshoot": 6348,
      "ether": 6349,
      "ĠLast": 6350,
      "Ġprocedure": 6351,
      "Ġ32": 6352,
      "Ġancest": 6353,
      "ĠWall": 6354,
      "usal": 6355,
      "ĠRom": 6356,
      "Ġmusical": 6357,
      "ĠCr": 6358,
      "Ġquarter": 6359,
      "Ġmanager": 6360,
      "Ġordered": 6361,
      "dat": 6362,
      "abil": 6363,
      "agues": 6364,
      "ĠForest": 6365,
      "Ġfly": 6366,
      "icate": 6367,
      "Ġsomewhat": 6368,
      "Ġtypical": 6369,
      "ĠOrig": 6370,
      "Ġiniti": 6371,
      "Ġdict": 6372,
      "Ġ{}": 6373,
      "Ġmeasured": 6374,
      "Ġentry": 6375,
      "Ġcontrolled": 6376,
      "Ġterritory": 6377,
      "ĠBattle": 6378,
      "72": 6379,
      "Ġinqu": 6380,
      "verty": 6381,
      "Ġliquid": 6382,
      "Ġwave": 6383,
      "Ġsubs": 6384,
      "hew": 6385,
      "Ġpu": 6386,
      "Ġpassing": 6387,
      "osa": 6388,
      "!âĢĻ": 6389,
      "Ġholding": 6390,
      "ĠFamily": 6391,
      "Ġpoverty": 6392,
      "Ġevil": 6393,
      "Ġends": 6394,
      "Ġmixed": 6395,
      "Ġexperts": 6396,
      "Ġgather": 6397,
      "Ġcommit": 6398,
      "ename": 6399,
      "UN": 6400,
      "Ġdomin": 6401,
      "Ġmode": 6402,
      "while": 6403,
      "vania": 6404,
      "Ġfurn": 6405,
      "ĠSup": 6406,
      "Ġcorpor": 6407,
      "chers": 6408,
      "ĠSpecial": 6409,
      "Ġadvoc": 6410,
      "Ġconqu": 6411,
      "ictionary": 6412,
      "ĠMicro": 6413,
      "Yes": 6414,
      "ĠCross": 6415,
      "rine": 6416,
      "41": 6417,
      "ĠBoston": 6418,
      "resents": 6419,
      "Ġtooth": 6420,
      "CH": 6421,
      "Ġreduction": 6422,
      "Ġblow": 6423,
      "Ġgreatly": 6424,
      "Ġissued": 6425,
      "Ġchosen": 6426,
      "Ġconcepts": 6427,
      "Ġshell": 6428,
      "arn": 6429,
      "Ġintelligence": 6430,
      "ĠPy": 6431,
      "Ġperiods": 6432,
      "Ġboat": 6433,
      "Ġdrawn": 6434,
      "ĠSaf": 6435,
      "Ġflag": 6436,
      "Ġsteel": 6437,
      "Ġble": 6438,
      "Ġextensive": 6439,
      "ĠLittle": 6440,
      "mond": 6441,
      "Ġdust": 6442,
      "Ġcontinuous": 6443,
      "Ġhttps": 6444,
      "onia": 6445,
      "Ġhat": 6446,
      "Ġyounger": 6447,
      "ĠHy": 6448,
      "Ġcommission": 6449,
      "Ġarrange": 6450,
      "ocket": 6451,
      "ĠLiber": 6452,
      "ĠGre": 6453,
      "Ġstick": 6454,
      "ifications": 6455,
      "ĠFree": 6456,
      "Ġunable": 6457,
      "ĠNations": 6458,
      "start": 6459,
      "Ġintellect": 6460,
      "Ġassign": 6461,
      "Ġjobs": 6462,
      "Ġinfections": 6463,
      "Ġprotected": 6464,
      "Ġnoise": 6465,
      "Ġessay": 6466,
      "Ġefficiency": 6467,
      "ba": 6468,
      "Ġfashion": 6469,
      "RA": 6470,
      "Ġparticles": 6471,
      "Ġpollution": 6472,
      ",âĢĶ": 6473,
      "Ġ1986": 6474,
      "Ġlaunched": 6475,
      "Ġacts": 6476,
      "Ġempt": 6477,
      "Ġpassage": 6478,
      "IG": 6479,
      "LL": 6480,
      "Ġdifficulty": 6481,
      "Ġconsequences": 6482,
      "alities": 6483,
      "Ġaband": 6484,
      "Ġwithd": 6485,
      "Ġinflamm": 6486,
      "Ġdisappe": 6487,
      "Ġbatt": 6488,
      "Ġdanger": 6489,
      "ĠLearning": 6490,
      "Ġcrew": 6491,
      "Ġdrawing": 6492,
      "ĠAst": 6493,
      "Ġwhatever": 6494,
      "Ġlad": 6495,
      "Ġmulti": 6496,
      "hips": 6497,
      "ĠRevolution": 6498,
      "Ġminute": 6499,
      "ĠManagement": 6500,
      "oir": 6501,
      "Ġ[]": 6502,
      "Ġadministr": 6503,
      "Ġcoff": 6504,
      "Re": 6505,
      "Ġsuffer": 6506,
      "ĠLic": 6507,
      "Ġchannel": 6508,
      "Ġdatabase": 6509,
      "Ã¤": 6510,
      "ĠPolit": 6511,
      "ĠLater": 6512,
      "Ġintroduction": 6513,
      "Ġextract": 6514,
      "imental": 6515,
      "ishment": 6516,
      "Ġemployed": 6517,
      "Ġsuffering": 6518,
      "Ġspr": 6519,
      "FL": 6520,
      "Ġfill": 6521,
      "Ġbread": 6522,
      "Well": 6523,
      "Ġbranch": 6524,
      "she": 6525,
      "Ġtoxic": 6526,
      "IA": 6527,
      "Ġconfir": 6528,
      "ĠDev": 6529,
      "Ġbreath": 6530,
      "Ġcounty": 6531,
      "Ġfold": 6532,
      "Ġwire": 6533,
      "Ġscript": 6534,
      "Ġaudience": 6535,
      "Ġdriving": 6536,
      "organ": 6537,
      "Ġhundreds": 6538,
      "Ġcolour": 6539,
      "ĠAdminist": 6540,
      "ushing": 6541,
      "Ġinstruction": 6542,
      "Ġobtain": 6543,
      "Ġfaster": 6544,
      "Ġemotional": 6545,
      "Ġdetailed": 6546,
      "racy": 6547,
      "Ġelectrical": 6548,
      "Ġneut": 6549,
      "ĠMu": 6550,
      "syl": 6551,
      "ĠTre": 6552,
      "IP": 6553,
      "press": 6554,
      "DF": 6555,
      "ĠHave": 6556,
      "Ġnaturally": 6557,
      "Ġchapter": 6558,
      "Ġdesert": 6559,
      "Ġjudge": 6560,
      "Ġlesson": 6561,
      "ĠExpl": 6562,
      "adel": 6563,
      "Ġunion": 6564,
      "Ġ|-": 6565,
      "Ġpull": 6566,
      "Ġphr": 6567,
      "Ġages": 6568,
      "Ġcontained": 6569,
      "Ġfalse": 6570,
      "Ġrepresents": 6571,
      "195": 6572,
      "ĠOxford": 6573,
      "ĠMatt": 6574,
      "obe": 6575,
      "Ġsequence": 6576,
      "ificial": 6577,
      "Ġfib": 6578,
      "Ġmovements": 6579,
      "ĠTri": 6580,
      "Sc": 6581,
      "ropical": 6582,
      "Ġvehicles": 6583,
      "iac": 6584,
      "Ġhall": 6585,
      "cknow": 6586,
      "Ġwalking": 6587,
      "ĠFollowing": 6588,
      "Ġdiagnosis": 6589,
      "Ġhabitat": 6590,
      "Ġconstitution": 6591,
      "mes": 6592,
      "Ġvictory": 6593,
      "Ġ1987": 6594,
      "Ġsubstance": 6595,
      "Ġchemicals": 6596,
      "Ġbeauty": 6597,
      "Ġwine": 6598,
      "ĠHon": 6599,
      "Ġemergency": 6600,
      "Ġadding": 6601,
      "Ġauthorities": 6602,
      "69": 6603,
      "To": 6604,
      "Ġdescribes": 6605,
      "Ġequival": 6606,
      "Ġprices": 6607,
      "Ġuniverse": 6608,
      "Ġaer": 6609,
      "ĠDesign": 6610,
      "adow": 6611,
      "Ġformal": 6612,
      "aven": 6613,
      "Ġsought": 6614,
      "uten": 6615,
      "rog": 6616,
      "FA": 6617,
      "dated": 6618,
      "ĠDise": 6619,
      "ĠÎ": 6620,
      "Ġdiff": 6621,
      "Ġselection": 6622,
      "Ġcolors": 6623,
      "ults": 6624,
      "inction": 6625,
      "ourage": 6626,
      "Ġduty": 6627,
      "EP": 6628,
      "Ġcrime": 6629,
      "Ġhaz": 6630,
      "Ġlegs": 6631,
      "ura": 6632,
      "Ġbasket": 6633,
      "ĠOpen": 6634,
      "ĠFilm": 6635,
      "ĠNatural": 6636,
      "Ġachieved": 6637,
      "CS": 6638,
      "ĠNorm": 6639,
      "cluding": 6640,
      "Ġfundamental": 6641,
      "BN": 6642,
      "Ġcrisis": 6643,
      "Ġtherm": 6644,
      "ĠPen": 6645,
      "Ġflex": 6646,
      "asters": 6647,
      "Ġdism": 6648,
      "Ġassistance": 6649,
      "inations": 6650,
      "ĠCorn": 6651,
      "dim": 6652,
      "ĠField": 6653,
      "Ġmissing": 6654,
      "Ġsuffered": 6655,
      "aming": 6656,
      "bra": 6657,
      "ĠEnvironmental": 6658,
      "Ġclaimed": 6659,
      "Ġdocuments": 6660,
      "rant": 6661,
      "Ġdelay": 6662,
      "idelines": 6663,
      "asty": 6664,
      "Ġowned": 6665,
      "ansas": 6666,
      "Ġ1985": 6667,
      "igenous": 6668,
      "Ġsitting": 6669,
      "enger": 6670,
      "sylvania": 6671,
      "rolog": 6672,
      "Ġconstructed": 6673,
      "Ġserving": 6674,
      "ĠâĢ¦": 6675,
      "Ġincreasingly": 6676,
      "input": 6677,
      "Ġcloud": 6678,
      "Ġgram": 6679,
      "Ġleague": 6680,
      "Ġvote": 6681,
      "olve": 6682,
      "endment": 6683,
      "bury": 6684,
      "Ġproducing": 6685,
      "ione": 6686,
      "Ġbiological": 6687,
      "ĠCaptain": 6688,
      "Ġproteins": 6689,
      "Ġnarr": 6690,
      "Ġpray": 6691,
      "85": 6692,
      "Ġleadership": 6693,
      "Ġstem": 6694,
      "raining": 6695,
      "rastructure": 6696,
      "ensor": 6697,
      "oven": 6698,
      "fit": 6699,
      "Ġacquired": 6700,
      "ĠLady": 6701,
      "Ġearn": 6702,
      "Ġdedicated": 6703,
      "bles": 6704,
      "Ġorganized": 6705,
      "Obs": 6706,
      "Ġju": 6707,
      "Ġbroadcast": 6708,
      "Ġtasks": 6709,
      "asy": 6710,
      "ĠKnow": 6711,
      "arser": 6712,
      "ĠControl": 6713,
      "Ġmedium": 6714,
      "Ġforget": 6715,
      "Ġpropos": 6716,
      "Ġrising": 6717,
      "Ġdiscipl": 6718,
      "Ġwants": 6719,
      "inating": 6720,
      "IM": 6721,
      "Ġswim": 6722,
      "Ġeditor": 6723,
      "Ġ2022": 6724,
      "ĠBu": 6725,
      "rons": 6726,
      "Ġusual": 6727,
      "Ġlatest": 6728,
      "orous": 6729,
      "ĠHor": 6730,
      "Ġnearby": 6731,
      "Ġsatell": 6732,
      "ĠÐ": 6733,
      "ĠGoogle": 6734,
      "ĠBa": 6735,
      "Ġvegetables": 6736,
      "Ġexplains": 6737,
      "Ġengaged": 6738,
      "etts": 6739,
      "Ġstands": 6740,
      "Ġfunding": 6741,
      "output": 6742,
      "ulty": 6743,
      "Ġlisten": 6744,
      "Ġawareness": 6745,
      "shape": 6746,
      "aria": 6747,
      "Ġattached": 6748,
      "Ġplot": 6749,
      "Ġassociation": 6750,
      "plate": 6751,
      "Ġ300": 6752,
      "ading": 6753,
      "produ": 6754,
      "Ġmotiv": 6755,
      "ĠIran": 6756,
      "Ġtested": 6757,
      "Ġregularly": 6758,
      "Ġsentence": 6759,
      "ima": 6760,
      "Ġinhabit": 6761,
      "ĠDan": 6762,
      "Ġinches": 6763,
      "ĠPass": 6764,
      "Ġheads": 6765,
      "ĠAngeles": 6766,
      "ĠNever": 6767,
      "stract": 6768,
      "ockey": 6769,
      "ĠLight": 6770,
      "ker": 6771,
      "ĠLORD": 6772,
      "Ġphilosophy": 6773,
      "Ġcontribute": 6774,
      "ĠJeff": 6775,
      "Ġprincipal": 6776,
      "ĠBal": 6777,
      "Ġecosystem": 6778,
      "ĠPennsylvania": 6779,
      "Ġelif": 6780,
      "ĠChapter": 6781,
      "ĠAP": 6782,
      "Ġinvent": 6783,
      "Ġacknow": 6784,
      "Ġblog": 6785,
      "tenance": 6786,
      "Ġgovernments": 6787,
      "ĠMax": 6788,
      "Ġnit": 6789,
      "ĠGames": 6790,
      "Ġroots": 6791,
      "Ġvaluable": 6792,
      "Ġsustainable": 6793,
      "uts": 6794,
      "ĠKen": 6795,
      "Ġsport": 6796,
      "Ġminimum": 6797,
      "ĠSand": 6798,
      "imp": 6799,
      "elve": 6800,
      "Ġsituations": 6801,
      "osm": 6802,
      "orith": 6803,
      "Ġloved": 6804,
      "Ġparalle": 6805,
      "Ġafford": 6806,
      "Ġindu": 6807,
      "ĠLee": 6808,
      "Ġphone": 6809,
      "ĠDown": 6810,
      "ĠBlue": 6811,
      "Ġ1984": 6812,
      "06": 6813,
      "ĠArts": 6814,
      "Ġmerely": 6815,
      "Ġproved": 6816,
      "Ġ+=": 6817,
      "ools": 6818,
      "Ġdepends": 6819,
      "Ġvulner": 6820,
      "athy": 6821,
      "ĠSong": 6822,
      "iary": 6823,
      "ĠJohnson": 6824,
      "Ġdiscussed": 6825,
      "Ġobst": 6826,
      "ĠSat": 6827,
      "step": 6828,
      "ĠAlbert": 6829,
      "Ġfluid": 6830,
      "ĠOhio": 6831,
      "ref": 6832,
      "ĠUl": 6833,
      "Ġ**": 6834,
      "ĠAlexander": 6835,
      "Ġunus": 6836,
      "ĠFather": 6837,
      "ĠFact": 6838,
      "ĠDisc": 6839,
      "Ġsharp": 6840,
      "Ġprogramming": 6841,
      "ENT": 6842,
      "Ġindependence": 6843,
      "08": 6844,
      "Ġaccurate": 6845,
      "Ġabuse": 6846,
      "Ġresulted": 6847,
      "ĠOcean": 6848,
      "Ġdepartment": 6849,
      "My": 6850,
      "Ġperspective": 6851,
      "ĠEth": 6852,
      "Ġfeatured": 6853,
      "ĠLove": 6854,
      "Ġsons": 6855,
      "Ġundert": 6856,
      "How": 6857,
      "otal": 6858,
      "Ġcontrovers": 6859,
      "Sh": 6860,
      "Ġbones": 6861,
      "itter": 6862,
      "ĠEc": 6863,
      "Ġpron": 6864,
      "Ġdropped": 6865,
      "Ġitem": 6866,
      "Ġvaccine": 6867,
      "Ġcrops": 6868,
      "achus": 6869,
      "Ġdepth": 6870,
      "Ġpossibility": 6871,
      "Ġalbums": 6872,
      "ĠEliz": 6873,
      "then": 6874,
      "inking": 6875,
      "Ġsuccessfully": 6876,
      "coming": 6877,
      "Ġmuscles": 6878,
      "Ġing": 6879,
      "Ġpermanent": 6880,
      "ĠFinally": 6881,
      "03": 6882,
      "join": 6883,
      "Ġthrow": 6884,
      "ricts": 6885,
      "Ġ1979": 6886,
      "ifies": 6887,
      "rous": 6888,
      "ĠBow": 6889,
      "ĠGlobal": 6890,
      "Ġ36": 6891,
      "ĠScottish": 6892,
      "Ġexists": 6893,
      "ĠEst": 6894,
      "Ġforests": 6895,
      "ĠCarl": 6896,
      "abeth": 6897,
      "09": 6898,
      "Ġben": 6899,
      "Ġcrowd": 6900,
      "Ġmatters": 6901,
      "illy": 6902,
      "igation": 6903,
      "Ġleaf": 6904,
      "ĠGar": 6905,
      "Ġdecline": 6906,
      "gers": 6907,
      "claimed": 6908,
      "ĠWales": 6909,
      "Ġlaunch": 6910,
      "Ġprev": 6911,
      "Ġinstitution": 6912,
      "Ġ\\": 6913,
      "Ġdepos": 6914,
      "Ġgenerate": 6915,
      "Ġnom": 6916,
      "Ġtea": 6917,
      "chen": 6918,
      "ivered": 6919,
      "adium": 6920,
      "Ġceremon": 6921,
      "map": 6922,
      "OC": 6923,
      "ctic": 6924,
      "phone": 6925,
      "ĠNavy": 6926,
      "oly": 6927,
      "Ġrein": 6928,
      "ĠGeorgia": 6929,
      "Ġinvestment": 6930,
      "Ġstages": 6931,
      "Ġmoist": 6932,
      "Ġexperiments": 6933,
      "Ġconcentration": 6934,
      "Ġtopics": 6935,
      "Ġ('": 6936,
      "Ġpositions": 6937,
      "ĠPlease": 6938,
      "Ġowner": 6939,
      "Ġadvent": 6940,
      "Ġarray": 6941,
      "Ġroyal": 6942,
      "02": 6943,
      "oom": 6944,
      "Ġtoler": 6945,
      "Ġprompt": 6946,
      "tle": 6947,
      "Ġagriculture": 6948,
      "ĠAri": 6949,
      "ĠFair": 6950,
      "Ġwis": 6951,
      "Ġemployees": 6952,
      "Ġimmediate": 6953,
      "Ġhoriz": 6954,
      "Ġvital": 6955,
      "Ġfer": 6956,
      "ĠCard": 6957,
      "ĠSupreme": 6958,
      "ĠLy": 6959,
      "Ġgro": 6960,
      "Ġjoy": 6961,
      "Ġbless": 6962,
      "Ġworldwide": 6963,
      "Ġturns": 6964,
      "Ġconsiderable": 6965,
      "inson": 6966,
      "Ġsatisf": 6967,
      "Ġvessels": 6968,
      "Ġarchitecture": 6969,
      "ĠCoast": 6970,
      "89": 6971,
      "BA": 6972,
      "ĠSciences": 6973,
      "Ġkm": 6974,
      "aska": 6975,
      "Ġsacr": 6976,
      "Ġahead": 6977,
      "ĠAtlantic": 6978,
      "Ġstead": 6979,
      "Ġprove": 6980,
      "Ġexpensive": 6981,
      "Ġ1983": 6982,
      "Ġapproaches": 6983,
      "ĠDig": 6984,
      "ogether": 6985,
      "ĠAuthor": 6986,
      "ĠTake": 6987,
      "Ġtaste": 6988,
      "ĠVan": 6989,
      "osph": 6990,
      "Ġarts": 6991,
      "Ġinitially": 6992,
      "Ġtreatments": 6993,
      "iology": 6994,
      "Ġfoundation": 6995,
      "Ġregist": 6996,
      "Ġconfidence": 6997,
      "Ġjump": 6998,
      "Ġmassive": 6999,
      "ĠExper": 7000,
      "Ġmetab": 7001,
      "ĠPortug": 7002,
      "ĠViet": 7003,
      "fish": 7004,
      "Ġaren": 7005,
      "Ġsevent": 7006,
      "Ġattended": 7007,
      "Ġheaven": 7008,
      "Ġcarefully": 7009,
      "Ġblind": 7010,
      "Ġwel": 7011,
      "Ġcrown": 7012,
      "Ġpolitics": 7013,
      "ĠCurrent": 7014,
      "Ġfruits": 7015,
      "erior": 7016,
      "ampl": 7017,
      "ficial": 7018,
      "faces": 7019,
      "ĠLook": 7020,
      "Ġlocations": 7021,
      "Ġabund": 7022,
      "Ġpapers": 7023,
      "Ġ1982": 7024,
      "ĠMid": 7025,
      "Ġstruggle": 7026,
      "ĠPC": 7027,
      "igrants": 7028,
      "Ġstruck": 7029,
      "alysis": 7030,
      "Ġcompos": 7031,
      "scale": 7032,
      "Ġprepare": 7033,
      "Ġmillions": 7034,
      "Ġcomposition": 7035,
      "Ġbusinesses": 7036,
      "iano": 7037,
      "ĠChem": 7038,
      "tery": 7039,
      "ĠChristmas": 7040,
      "Ġgained": 7041,
      "Ġtransition": 7042,
      "Ġdistributed": 7043,
      "Ġdensity": 7044,
      "ĠSeveral": 7045,
      "Ġultimately": 7046,
      "Ġrestrict": 7047,
      "Ġbroke": 7048,
      "ells": 7049,
      "&?;": 7050,
      "Ġlake": 7051,
      "ĠWat": 7052,
      "Ġcultiv": 7053,
      "Ġapprec": 7054,
      "Ġmonitoring": 7055,
      "Ġdream": 7056,
      "rep": 7057,
      "Ġconversation": 7058,
      "azing": 7059,
      "Ġcraft": 7060,
      "Ġsettled": 7061,
      "inces": 7062,
      "ograp": 7063,
      "Ġholds": 7064,
      "ĠAh": 7065,
      "np": 7066,
      "Ġinstruments": 7067,
      "Ġuns": 7068,
      "\"),": 7069,
      "ĠFigure": 7070,
      "Ġinner": 7071,
      "Ġwaves": 7072,
      "oves": 7073,
      "yr": 7074,
      "Ġvac": 7075,
      "uan": 7076,
      "Ġwasn": 7077,
      "free": 7078,
      "Ġ1930": 7079,
      "Ġsession": 7080,
      "Ġaccounts": 7081,
      "ocracy": 7082,
      "you": 7083,
      "mm": 7084,
      "Ġvolunte": 7085,
      "Ġpotentially": 7086,
      "HO": 7087,
      "Ġmamm": 7088,
      "ĠCentre": 7089,
      "Ġdance": 7090,
      "ĠBase": 7091,
      "ĠKent": 7092,
      "Ġreserv": 7093,
      "tw": 7094,
      "Ġpump": 7095,
      "ĠMichigan": 7096,
      "Ġpup": 7097,
      "Ġserver": 7098,
      "db": 7099,
      "gi": 7100,
      "thur": 7101,
      "law": 7102,
      "Ġliver": 7103,
      "Ġhandle": 7104,
      "Se": 7105,
      "Ġethnic": 7106,
      "achusetts": 7107,
      "ĠNov": 7108,
      "azz": 7109,
      "Ġsyndrome": 7110,
      "ais": 7111,
      "ĠChief": 7112,
      "mn": 7113,
      "Ġstarts": 7114,
      "Ġrelation": 7115,
      "ĠDirector": 7116,
      "Ġresolution": 7117,
      "ailed": 7118,
      "Ġskill": 7119,
      "Ġlimits": 7120,
      "Res": 7121,
      "Ġgranted": 7122,
      "Ġawarded": 7123,
      "Ġnetworks": 7124,
      "Ġrecovery": 7125,
      "Ġbudget": 7126,
      "eping": 7127,
      "Ġharvest": 7128,
      "icious": 7129,
      "called": 7130,
      "ĠHead": 7131,
      "Ġsuitable": 7132,
      "ĠLine": 7133,
      "Ġdepict": 7134,
      "Ġmobile": 7135,
      "ĠLow": 7136,
      "Ġmarg": 7137,
      "Ġcourses": 7138,
      "Ġoptim": 7139,
      "ĠMult": 7140,
      "ĠSports": 7141,
      "raid": 7142,
      "aniel": 7143,
      "ĠGir": 7144,
      "arsh": 7145,
      "real": 7146,
      "ĠServices": 7147,
      "Equal": 7148,
      "Ġopposed": 7149,
      "Ġgenerated": 7150,
      "ucky": 7151,
      "acle": 7152,
      "As": 7153,
      "ĠHaving": 7154,
      "abits": 7155,
      "Ġtruly": 7156,
      "Ġmountains": 7157,
      "omach": 7158,
      "Ġdiscrim": 7159,
      "Ġ75": 7160,
      "Ġpurchase": 7161,
      "Ġpip": 7162,
      "Ġgal": 7163,
      "ĠMaster": 7164,
      "Ġlandscape": 7165,
      "rary": 7166,
      "ĠComput": 7167,
      "Ġspoken": 7168,
      "Ġgrav": 7169,
      "ĠĠĠĠčĊ": 7170,
      "ĠSunday": 7171,
      "Ġweapons": 7172,
      "anes": 7173,
      "Ġwaiting": 7174,
      "Ġplanned": 7175,
      "Ġrecognition": 7176,
      "().": 7177,
      "Ġpounds": 7178,
      "ĠPakistan": 7179,
      "Ġlect": 7180,
      "olk": 7181,
      "ĠCommunity": 7182,
      "Ġelectronic": 7183,
      "isted": 7184,
      "race": 7185,
      "Ġdecade": 7186,
      "Ġourselves": 7187,
      "outs": 7188,
      "Ġ1940": 7189,
      "Ġfab": 7190,
      "cs": 7191,
      "Ġnormally": 7192,
      "Ġprovince": 7193,
      "Ġprocedures": 7194,
      "ĠJersey": 7195,
      "Ġagencies": 7196,
      "ĠMassachusetts": 7197,
      "For": 7198,
      "ĠMic": 7199,
      "Ġuncle": 7200,
      "sor": 7201,
      "ĠNon": 7202,
      "icide": 7203,
      "html": 7204,
      "Ġcm": 7205,
      "MP": 7206,
      "olt": 7207,
      "Ġlessons": 7208,
      "Ġsmart": 7209,
      "ĠEnter": 7210,
      "Ġrelief": 7211,
      "ĠWay": 7212,
      "Ġrailway": 7213,
      "Ġrecognize": 7214,
      "write": 7215,
      "Ġaffects": 7216,
      "Ġcaptured": 7217,
      "ibilities": 7218,
      "ĠBob": 7219,
      "sue": 7220,
      "Ã¨": 7221,
      "oln": 7222,
      "Ġtrained": 7223,
      "Ġsmoke": 7224,
      "Ġca": 7225,
      "Ġtiny": 7226,
      "Ġsupporting": 7227,
      "Ġrid": 7228,
      "Ġassigned": 7229,
      "Ġsensitive": 7230,
      "Ġphotograph": 7231,
      "ĠColon": 7232,
      "ĠFrancisco": 7233,
      "lishing": 7234,
      "Ġimmun": 7235,
      "acher": 7236,
      "Ġterror": 7237,
      "ĠSometimes": 7238,
      "Ġraw": 7239,
      "roud": 7240,
      "Ġnurs": 7241,
      "adelph": 7242,
      "Ġburied": 7243,
      "estion": 7244,
      "ĠÂł": 7245,
      "Ġdownload": 7246,
      "Ġcognitive": 7247,
      "Ġputting": 7248,
      "ĠAge": 7249,
      "ĠLo": 7250,
      "Ġimplic": 7251,
      "Ġcards": 7252,
      "indu": 7253,
      "isk": 7254,
      "Ġregarded": 7255,
      "Ġdollars": 7256,
      "Ġcarrying": 7257,
      "Ġsenior": 7258,
      "Ġmagazine": 7259,
      "ĠSign": 7260,
      "ĠHa": 7261,
      "Ġzone": 7262,
      "04": 7263,
      "era": 7264,
      "Ġorders": 7265,
      "arant": 7266,
      "Ġtemple": 7267,
      "stra": 7268,
      "ati": 7269,
      "estyle": 7270,
      "Ġrefuge": 7271,
      "},": 7272,
      "Ġcombat": 7273,
      "86": 7274,
      "Ġexpansion": 7275,
      "TV": 7276,
      "rating": 7277,
      "sen": 7278,
      "opher": 7279,
      "ĠIndians": 7280,
      "Ġcircuit": 7281,
      "Ġpartner": 7282,
      "Ġ1981": 7283,
      "Ä±": 7284,
      "ĠNaz": 7285,
      "Ġadequ": 7286,
      "Ġment": 7287,
      "ĠUr": 7288,
      "Ġpregnancy": 7289,
      "Ġchildhood": 7290,
      "Ġdiversity": 7291,
      "Ġfilter": 7292,
      "Ġmanufacturing": 7293,
      "ĠCharl": 7294,
      "Ġmanif": 7295,
      "Ġpleasure": 7296,
      "Ġequivalent": 7297,
      "Ġnewly": 7298,
      "ółģ": 7299,
      "umni": 7300,
      "Ġrespectively": 7301,
      "ĠFar": 7302,
      "esty": 7303,
      "Ġfacilit": 7304,
      "Ġstored": 7305,
      "usalem": 7306,
      "Ġrecy": 7307,
      "Ġbehaviour": 7308,
      "Ġnewspaper": 7309,
      "worth": 7310,
      "dule": 7311,
      "Ġimpacts": 7312,
      "Ġcurriculum": 7313,
      "Ġhelpful": 7314,
      "ĠNetwork": 7315,
      "Ġdecrease": 7316,
      "SS": 7317,
      "eller": 7318,
      "ĠAdv": 7319,
      "Ġswitch": 7320,
      "Ġsplit": 7321,
      "Ã§": 7322,
      "Ġinfrastructure": 7323,
      "erals": 7324,
      "Ġsuperior": 7325,
      "ĠUt": 7326,
      "Ġoffering": 7327,
      "Ġcommitted": 7328,
      "aset": 7329,
      "clusive": 7330,
      ".),": 7331,
      "ĠEll": 7332,
      "api": 7333,
      "Ġrig": 7334,
      "aka": 7335,
      "Ġcav": 7336,
      "Ġcalling": 7337,
      "Ġwilling": 7338,
      "ĠStudy": 7339,
      "hire": 7340,
      "Ġislands": 7341,
      "Ġagency": 7342,
      "adelphia": 7343,
      "Ġoral": 7344,
      "Ġhath": 7345,
      "Ġvariable": 7346,
      "ĠMcC": 7347,
      "ilation": 7348,
      "arks": 7349,
      "Ġcloser": 7350,
      "ĠAndrew": 7351,
      "DP": 7352,
      "ĠStan": 7353,
      "ĠDun": 7354,
      "parent": 7355,
      "Ġinfected": 7356,
      "amps": 7357,
      "rive": 7358,
      "ferent": 7359,
      "ĠCub": 7360,
      "Ġcomputers": 7361,
      "Ġnutrients": 7362,
      "Ġapproved": 7363,
      "ĠModern": 7364,
      "Ġadvert": 7365,
      "Ġattempts": 7366,
      "iest": 7367,
      "zed": 7368,
      "Ġinher": 7369,
      "Ġdecide": 7370,
      "Ph": 7371,
      "Ġfacility": 7372,
      "Ġmaintained": 7373,
      "Ġexception": 7374,
      "ĠAsian": 7375,
      "itudes": 7376,
      "ĠLim": 7377,
      "ĠDeath": 7378,
      "aser": 7379,
      "Ġpoison": 7380,
      "Ġhence": 7381,
      "umps": 7382,
      "Ġdraft": 7383,
      "Ġreader": 7384,
      "Ġreaders": 7385,
      "Ġsmooth": 7386,
      "Ġmarine": 7387,
      "Ġtowns": 7388,
      "Ġdestruction": 7389,
      "Ġcamera": 7390,
      "Ġdiverse": 7391,
      "Ġcircle": 7392,
      "ĠFire": 7393,
      "Ġcategory": 7394,
      "Ġgentleman": 7395,
      "Ġmild": 7396,
      "Ġprominent": 7397,
      "itle": 7398,
      "Ã¦": 7399,
      "ĠIndust": 7400,
      "ascular": 7401,
      "ĠMean": 7402,
      "ĠReturn": 7403,
      "Ġstreets": 7404,
      "ĠJustice": 7405,
      "Ġstudying": 7406,
      "Ġinjuries": 7407,
      "Gen": 7408,
      "Type": 7409,
      "orph": 7410,
      "Ġdrew": 7411,
      "ĠIV": 7412,
      "New": 7413,
      "Ġgradually": 7414,
      "Ġinfant": 7415,
      "Ġadopt": 7416,
      "essage": 7417,
      "Ġ1976": 7418,
      "Ġbomb": 7419,
      "ĠSeries": 7420,
      "Ġcrucial": 7421,
      "omer": 7422,
      "ĠAgricult": 7423,
      "Ġtong": 7424,
      "fast": 7425,
      "Ġdelivered": 7426,
      "ĠBooks": 7427,
      "67": 7428,
      "km": 7429,
      "eness": 7430,
      "inois": 7431,
      "Ġmaintenance": 7432,
      "Ġproduces": 7433,
      "Ġgate": 7434,
      "07": 7435,
      "ĠDor": 7436,
      "Ġinject": 7437,
      "Ġcomprehensive": 7438,
      "ali": 7439,
      "ĠIslands": 7440,
      "Ġreign": 7441,
      "Ġdebate": 7442,
      "Ġkit": 7443,
      "Ġagent": 7444,
      "ĠKn": 7445,
      "mann": 7446,
      "ployment": 7447,
      "ĠRailway": 7448,
      "Ġought": 7449,
      "atern": 7450,
      "ĠJerusalem": 7451,
      "ML": 7452,
      "98": 7453,
      "Ġbranches": 7454,
      "ĠHeart": 7455,
      "car": 7456,
      "Ġcontemporary": 7457,
      "ĠWorks": 7458,
      "ĠOl": 7459,
      "Ġreceiving": 7460,
      "Ġbanks": 7461,
      "theless": 7462,
      "%)": 7463,
      "Ġrivers": 7464,
      "ĠOlympic": 7465,
      "cribed": 7466,
      "using": 7467,
      "Ġempty": 7468,
      "sl": 7469,
      "APTER": 7470,
      "ĠLanguage": 7471,
      "Ġratio": 7472,
      "Don": 7473,
      "Ġfever": 7474,
      "ĠKenn": 7475,
      "Ġsubsequent": 7476,
      "ĠAND": 7477,
      "ĠAgain": 7478,
      "Ġaccompan": 7479,
      "ĠRout": 7480,
      "Ġtrip": 7481,
      "Ġclient": 7482,
      "incoln": 7483,
      "Ġcapture": 7484,
      "instance": 7485,
      "Ġfault": 7486,
      "Ġremote": 7487,
      "ĠTurk": 7488,
      "Ġresident": 7489,
      "Ġstable": 7490,
      "Ġglad": 7491,
      "Ġnose": 7492,
      "ipping": 7493,
      "Ġpublication": 7494,
      "Ġ1978": 7495,
      "Ġpainting": 7496,
      "Ġengage": 7497,
      ".âĢĶ": 7498,
      "urches": 7499,
      "rank": 7500,
      "Ġnegot": 7501,
      "Ġtone": 7502,
      "Ġreward": 7503,
      "Ġexped": 7504,
      "ĠPrinc": 7505,
      "hedule": 7506,
      "ĠPoint": 7507,
      "ĠJun": 7508,
      "Ġwindows": 7509,
      "ĠElizabeth": 7510,
      "Ġsupplies": 7511,
      "Ġtransmission": 7512,
      "ĠConference": 7513,
      "())": 7514,
      "ĠOlympics": 7515,
      "ounce": 7516,
      "aints": 7517,
      "Ġburning": 7518,
      "Ġcoffee": 7519,
      "Ġhistoric": 7520,
      "version": 7521,
      "Ġsettings": 7522,
      "ĠHot": 7523,
      "hent": 7524,
      "ĠCreat": 7525,
      "Ġstrict": 7526,
      "ĠPhiladelphia": 7527,
      "Ġabsence": 7528,
      "nn": 7529,
      "Ġstomach": 7530,
      "Ġdoctors": 7531,
      "Ġenable": 7532,
      "olly": 7533,
      "cules": 7534,
      "Ġworship": 7535,
      "Ġalgorith": 7536,
      "ðŁ": 7537,
      "ĠCambridge": 7538,
      "ĠHand": 7539,
      "ĉĉ": 7540,
      "Ġcomparison": 7541,
      "Ġsurvive": 7542,
      "cho": 7543,
      "Ġemployment": 7544,
      "Ġconclusion": 7545,
      "Ġ1920": 7546,
      "Ġoperated": 7547,
      "Ġmit": 7548,
      "Ġbattery": 7549,
      "ĠRadio": 7550,
      "Ġafraid": 7551,
      "ixture": 7552,
      "MA": 7553,
      "][": 7554,
      "Ġsignals": 7555,
      "Ġevident": 7556,
      "Name": 7557,
      "Ġ33": 7558,
      "Ġmechanism": 7559,
      "Ġestablishments": 7560,
      "CD": 7561,
      "Ġ{'": 7562,
      "Ġcreative": 7563,
      "Ġelectron": 7564,
      "Le": 7565,
      "align": 7566,
      "Ġroles": 7567,
      "ĠSon": 7568,
      "Ġaccel": 7569,
      "aya": 7570,
      "Ġ1975": 7571,
      "Ġneu": 7572,
      "http": 7573,
      "Ġshift": 7574,
      "rible": 7575,
      "Ġthorough": 7576,
      "spec": 7577,
      "Ġtank": 7578,
      "Ġ65": 7579,
      "Ġwhereas": 7580,
      "eries": 7581,
      "Ġbiggest": 7582,
      "ulpt": 7583,
      "raint": 7584,
      "aret": 7585,
      "Ġrefused": 7586,
      "Ġproof": 7587,
      "Ġdecor": 7588,
      "Ġsimpl": 7589,
      "Ġwheel": 7590,
      "eenth": 7591,
      "ĠCHAPTER": 7592,
      "Ġseconds": 7593,
      "Ġ1972": 7594,
      "Ġdefend": 7595,
      "Ġperm": 7596,
      "ĠHeb": 7597,
      "Ġimplementation": 7598,
      "De": 7599,
      "Ġwildlife": 7600,
      "Ġasc": 7601,
      "Ġwarming": 7602,
      "Ġ38": 7603,
      "Ġdefeated": 7604,
      "ĠKey": 7605,
      "Ġwouldn": 7606,
      "Ġdriver": 7607,
      "Ġmand": 7608,
      "asts": 7609,
      "kl": 7610,
      "ĠISBN": 7611,
      "Ġhem": 7612,
      "ĠCirc": 7613,
      "Ġ()": 7614,
      "ĠColl": 7615,
      "Ġsettlement": 7616,
      "uma": 7617,
      "owed": 7618,
      "Ġtight": 7619,
      "ĠIllinois": 7620,
      "ĠWilson": 7621,
      "auc": 7622,
      "tem": 7623,
      "Ġconsistent": 7624,
      "ĠBang": 7625,
      "Ġenhance": 7626,
      "Ġtrav": 7627,
      "Ġsurvival": 7628,
      "ĠNative": 7629,
      "awa": 7630,
      "Ġhill": 7631,
      "Ġdebt": 7632,
      "Ġstrongly": 7633,
      "Ġindicates": 7634,
      "ĠâĢĻ": 7635,
      "Ġcouldn": 7636,
      "Ġuncertain": 7637,
      "Ġaccum": 7638,
      "ao": 7639,
      "Ġlaugh": 7640,
      "des": 7641,
      "Ġhole": 7642,
      "ĠIra": 7643,
      "Ġpassion": 7644,
      "ĠSummer": 7645,
      "Ġinternet": 7646,
      "Ġoccupied": 7647,
      ".|": 7648,
      "ĠDie": 7649,
      "Ġconventional": 7650,
      "Ġsod": 7651,
      "agram": 7652,
      "eli": 7653,
      "ĠEss": 7654,
      "Ġcovers": 7655,
      "wan": 7656,
      "Ġtur": 7657,
      "Ġhousing": 7658,
      "Ġingred": 7659,
      "orted": 7660,
      "ĠCheck": 7661,
      "OW": 7662,
      "Ġfrequent": 7663,
      "Field": 7664,
      "Ġalle": 7665,
      "Ġveter": 7666,
      "ounter": 7667,
      "Ġconfirmed": 7668,
      "Ġconce": 7669,
      "Ġproceed": 7670,
      "rav": 7671,
      "Ġlaboratory": 7672,
      "Ġtips": 7673,
      "Ġoperate": 7674,
      "athered": 7675,
      "burgh": 7676,
      "ĠMoon": 7677,
      "Ġinvolving": 7678,
      "ĠMethod": 7679,
      "pop": 7680,
      "ĠBern": 7681,
      "ĠWin": 7682,
      "Ġkingdom": 7683,
      "Ġstrike": 7684,
      "Ġconcluded": 7685,
      "ĠAsh": 7686,
      "Ġfur": 7687,
      "ĠAssembly": 7688,
      "Ġtheme": 7689,
      "Ġrocks": 7690,
      "ĠCreek": 7691,
      "ĠGuide": 7692,
      "ĠYes": 7693,
      "Ġwww": 7694,
      "Ġalign": 7695,
      "iams": 7696,
      "Ġmagnetic": 7697,
      "TA": 7698,
      "hyth": 7699,
      "Ġshore": 7700,
      "Ġmedications": 7701,
      "ĠClin": 7702,
      "ĠJones": 7703,
      "âĢĻ.": 7704,
      "Ġbutter": 7705,
      "unct": 7706,
      "ĠIns": 7707,
      ".__": 7708,
      "Ġflying": 7709,
      "Ġserves": 7710,
      "iatric": 7711,
      "ĠFer": 7712,
      "uris": 7713,
      "Ġexplanation": 7714,
      "Ġfasc": 7715,
      "Ġsupplement": 7716,
      "Ġversions": 7717,
      "ifts": 7718,
      "ĠEs": 7719,
      "Ġalive": 7720,
      "ourse": 7721,
      "Ġguess": 7722,
      "Ġvisited": 7723,
      "Ġsections": 7724,
      "ĠLincoln": 7725,
      "Ġfossil": 7726,
      "ĠLew": 7727,
      "such": 7728,
      "Ġconcerning": 7729,
      "Ġsad": 7730,
      "ĠAnne": 7731,
      "Ġrecording": 7732,
      "Ġintellectual": 7733,
      "ypes": 7734,
      "Ġsales": 7735,
      "Ġwalked": 7736,
      "ĠPhilip": 7737,
      "ĠMot": 7738,
      "Ġinsects": 7739,
      "Ġneighborhood": 7740,
      "Ġnode": 7741,
      "ĠOpt": 7742,
      "ardens": 7743,
      "Ġconven": 7744,
      "riers": 7745,
      "Ġinsert": 7746,
      "har": 7747,
      "Ġfought": 7748,
      "ĠPot": 7749,
      "ĠJean": 7750,
      "pread": 7751,
      "cal": 7752,
      "image": 7753,
      "Ġchap": 7754,
      "Ġmovie": 7755,
      "SP": 7756,
      "Ġbeneath": 7757,
      "Ġanswers": 7758,
      "Ġlayers": 7759,
      "Ġalter": 7760,
      "Ġroads": 7761,
      "ashed": 7762,
      "Ġ1945": 7763,
      "ĠNotes": 7764,
      "Ġpercentage": 7765,
      "Ġfertil": 7766,
      "Ġinstalled": 7767,
      "Com": 7768,
      "Ġcryst": 7769,
      "ĠJon": 7770,
      "ĠPlant": 7771,
      "Ġbringing": 7772,
      "Ġprevention": 7773,
      "Ġheavily": 7774,
      "Ġtwelve": 7775,
      "ĠMarg": 7776,
      "Ġpreced": 7777,
      "63": 7778,
      "urd": 7779,
      "ulin": 7780,
      "ĠSpir": 7781,
      "ĠTour": 7782,
      "Ġnecessarily": 7783,
      "Ġdesired": 7784,
      "Ġ1974": 7785,
      "ĠHung": 7786,
      "Ġdesigns": 7787,
      "vironments": 7788,
      "Ġfunds": 7789,
      "Ġdomain": 7790,
      "Ġdriven": 7791,
      "Why": 7792,
      "Ġlegislation": 7793,
      "Mod": 7794,
      "cyclop": 7795,
      "avery": 7796,
      "ranch": 7797,
      "erman": 7798,
      "Ġhypothes": 7799,
      "asive": 7800,
      "apse": 7801,
      ",'": 7802,
      "Ġobservations": 7803,
      "Ġholid": 7804,
      "ila": 7805,
      "Ġinspired": 7806,
      "ĠBusiness": 7807,
      "Ġcutting": 7808,
      "opes": 7809,
      "Ġknowing": 7810,
      "ĠSet": 7811,
      "otten": 7812,
      "ĠHun": 7813,
      "(),": 7814,
      "Ġsupports": 7815,
      "Ġfinds": 7816,
      "Ġsle": 7817,
      "ĠLiter": 7818,
      "Ġmac": 7819,
      "cling": 7820,
      "ĠMD": 7821,
      "Ġoldest": 7822,
      "Ġ1977": 7823,
      "icit": 7824,
      "Ġminister": 7825,
      "Ġhidden": 7826,
      "Ġthirty": 7827,
      "Ġexpanded": 7828,
      "Ġplane": 7829,
      "Ġzero": 7830,
      "Ġhabits": 7831,
      "itual": 7832,
      "ĠChristians": 7833,
      "Ġslave": 7834,
      "Ġbare": 7835,
      "ĠPract": 7836,
      "ĠDam": 7837,
      "Ġimproving": 7838,
      "Ġparallel": 7839,
      "hus": 7840,
      "ĠAccess": 7841,
      "onym": 7842,
      "Ġfavour": 7843,
      "ĠRam": 7844,
      "utation": 7845,
      "Ġproportion": 7846,
      "Ġnerve": 7847,
      "itled": 7848,
      "assertEqual": 7849,
      "Ġclothes": 7850,
      "Ġminim": 7851,
      "Ġ1968": 7852,
      "ĠIndepend": 7853,
      "Ġsuppose": 7854,
      "ĠAdam": 7855,
      "Ġhast": 7856,
      "left": 7857,
      "Ġactor": 7858,
      "Ġdefense": 7859,
      "Ġparticipate": 7860,
      "yan": 7861,
      "Ġrecip": 7862,
      "ĠClimate": 7863,
      "process": 7864,
      "Ġframework": 7865,
      "Ġod": 7866,
      "ĠType": 7867,
      "hop": 7868,
      "Ġvo": 7869,
      "ĠTenn": 7870,
      "Ġsolve": 7871,
      "annels": 7872,
      "Ġcf": 7873,
      "Ġchest": 7874,
      "Ġoccas": 7875,
      "Ġmyth": 7876,
      "Ġwinning": 7877,
      "ĠColorado": 7878,
      "Ġpolitician": 7879,
      "hma": 7880,
      "Ġflo": 7881,
      "ĠAwards": 7882,
      "angle": 7883,
      "Ġsmoking": 7884,
      "Ġ400": 7885,
      "Ġ1973": 7886,
      "haust": 7887,
      "Ġpursu": 7888,
      "Ġfairly": 7889,
      "Ġ48": 7890,
      "ĠSimilar": 7891,
      "Ġindicated": 7892,
      "Ġseasons": 7893,
      "normal": 7894,
      "Ġske": 7895,
      "erated": 7896,
      "Ġuniform": 7897,
      "Ġdisch": 7898,
      "lock": 7899,
      "rip": 7900,
      "ĠBell": 7901,
      "Ġ]": 7902,
      "ensed": 7903,
      "61": 7904,
      "ĠJackson": 7905,
      "ĠStation": 7906,
      "Ġinfluenced": 7907,
      "inals": 7908,
      "otton": 7909,
      "Ġoutcomes": 7910,
      "Ġtransportation": 7911,
      "erly": 7912,
      "Ġliv": 7913,
      "ĠBib": 7914,
      "Ġinhabitants": 7915,
      "Ġhydrogen": 7916,
      "Ġfix": 7917,
      "ĠEngineering": 7918,
      "CA": 7919,
      "Ġtorch": 7920,
      "ĠHospital": 7921,
      "Åį": 7922,
      "ĠIP": 7923,
      "ĠNext": 7924,
      "ĠBroad": 7925,
      "names": 7926,
      "Ġguidelines": 7927,
      "ivery": 7928,
      "Ã±": 7929,
      "Ġopposition": 7930,
      "Ġasking": 7931,
      "Ġcreates": 7932,
      "oli": 7933,
      "Ġintake": 7934,
      "ira": 7935,
      "ĠGovernor": 7936,
      "Ġcomments": 7937,
      "pha": 7938,
      "bin": 7939,
      "ĠSecurity": 7940,
      "Ġworst": 7941,
      "build": 7942,
      "ĠAR": 7943,
      "Ġfaces": 7944,
      "Ġathlet": 7945,
      "ĠVar": 7946,
      "Ġdelight": 7947,
      "Ġvessel": 7948,
      "check": 7949,
      "Ġmurder": 7950,
      "esity": 7951,
      "SI": 7952,
      "ĠKorea": 7953,
      "ĠSus": 7954,
      "Ġblocks": 7955,
      "ĠĠĠĠĠĠĠĠĠĠĠĠĠĠĠĠĠĠĠĠĠĠĠĠĠĠĠ": 7956,
      "alo": 7957,
      "Ġfewer": 7958,
      "ĠCorps": 7959,
      "Ġordinary": 7960,
      "Ġille": 7961,
      "Ġargs": 7962,
      "Ġcriminal": 7963,
      "esis": 7964,
      "Ġstroke": 7965,
      "Ġseparated": 7966,
      "ĠPu": 7967,
      "ifier": 7968,
      "incess": 7969,
      "Ġbio": 7970,
      "ela": 7971,
      "una": 7972,
      "ommod": 7973,
      "Ġsurprise": 7974,
      "after": 7975,
      "page": 7976,
      "Ġantibiot": 7977,
      "ĠStart": 7978,
      "Ġcolleagues": 7979,
      "ĠJr": 7980,
      "keys": 7981,
      "Ġearliest": 7982,
      "Ġartificial": 7983,
      "Ġentertain": 7984,
      "Ġexecutive": 7985,
      "ĠAdministration": 7986,
      "aired": 7987,
      "ĠFund": 7988,
      "ĠTransport": 7989,
      "Ġconference": 7990,
      "Ġallerg": 7991,
      "Ġpriest": 7992,
      "string": 7993,
      "ĠWis": 7994,
      "Ġmaps": 7995,
      "ĠContin": 7996,
      "ĠMoreover": 7997,
      "Ġchoices": 7998,
      "Ġnest": 7999,
      "ĠPope": 8000,
      "ĠBeh": 8001,
      "vard": 8002,
      "Ġregulations": 8003,
      "ĠArthur": 8004,
      "alog": 8005,
      "Ġdesp": 8006,
      "iger": 8007,
      "Ġpeak": 8008,
      "Ġslaves": 8009,
      "Ġsheet": 8010,
      "Ġacting": 8011,
      "leton": 8012,
      "ropol": 8013,
      "current": 8014,
      "ributes": 8015,
      "Ġprohib": 8016,
      "Ġears": 8017,
      "ador": 8018,
      "wid": 8019,
      "kwargs": 8020,
      "ĠPerhaps": 8021,
      "Ġsubsequently": 8022,
      "Ġbought": 8023,
      "Ġcultures": 8024,
      "ĠRay": 8025,
      "Ġsaved": 8026,
      "Ġorient": 8027,
      "Ġpersonnel": 8028,
      "Ġusage": 8029,
      "oving": 8030,
      "ĠDif": 8031,
      "Ġdistricts": 8032,
      "ois": 8033,
      "Ġmolecules": 8034,
      "Ġequally": 8035,
      "ĠBon": 8036,
      "Ġnan": 8037,
      "Ġ1969": 8038,
      "rose": 8039,
      "orig": 8040,
      "Ġmachines": 8041,
      "idespread": 8042,
      "Ð°": 8043,
      "Ġlots": 8044,
      "operation": 8045,
      "Ind": 8046,
      "ĠTeam": 8047,
      "ĠNY": 8048,
      "xual": 8049,
      "Ġtrials": 8050,
      "%.": 8051,
      "di": 8052,
      "apped": 8053,
      "62": 8054,
      "Ġflav": 8055,
      "ĠMarine": 8056,
      "Ġbass": 8057,
      "Ġpurchased": 8058,
      "Ġintervention": 8059,
      "Ġinteraction": 8060,
      "icked": 8061,
      "oples": 8062,
      "open": 8063,
      "ĠOtt": 8064,
      "ĠInit": 8065,
      "Ġangle": 8066,
      "ĠCorpor": 8067,
      "ĠBoy": 8068,
      "gans": 8069,
      "range": 8070,
      "á¹": 8071,
      "Ġsail": 8072,
      "perty": 8073,
      "Ġfet": 8074,
      "valid": 8075,
      "ĠDuke": 8076,
      "aine": 8077,
      "request": 8078,
      "Ġsharing": 8079,
      "All": 8080,
      "ĠCopy": 8081,
      "Ġexplo": 8082,
      "Ġfalling": 8083,
      "Ġimprovement": 8084,
      "Ġscar": 8085,
      "Ġstores": 8086,
      "vals": 8087,
      "status": 8088,
      "Ġactors": 8089,
      "Ġfifth": 8090,
      "TH": 8091,
      "Ġrecept": 8092,
      "ruption": 8093,
      "Ġinhib": 8094,
      "Ġpale": 8095,
      "Ġpointed": 8096,
      "ĠCancer": 8097,
      "Ġspecim": 8098,
      "Be": 8099,
      "Ġ1971": 8100,
      "Ġfalls": 8101,
      "Ġinstructions": 8102,
      "shire": 8103,
      "ĠJoe": 8104,
      "ĠLead": 8105,
      "zo": 8106,
      "ĠRog": 8107,
      "vi": 8108,
      "Ġinflammation": 8109,
      "abul": 8110,
      "58": 8111,
      "ĠIraq": 8112,
      "Ġ150": 8113,
      "Ġconcrete": 8114,
      "Ġincident": 8115,
      "method": 8116,
      "Ġmodified": 8117,
      "ĠWindows": 8118,
      "Ġsinger": 8119,
      "ĠMedia": 8120,
      "Ġmeth": 8121,
      "ĠWilliams": 8122,
      "Ġteen": 8123,
      "istent": 8124,
      "oked": 8125,
      "Ġmyst": 8126,
      "CE": 8127,
      "Ġunusual": 8128,
      "spl": 8129,
      "Ġpromise": 8130,
      "osion": 8131,
      "ĠShort": 8132,
      "ĠArm": 8133,
      "lation": 8134,
      "itals": 8135,
      "exp": 8136,
      "Ġtheore": 8137,
      "aved": 8138,
      "Ġresc": 8139,
      "Ġwonderful": 8140,
      "Ġtons": 8141,
      "label": 8142,
      "Am": 8143,
      "just": 8144,
      "vol": 8145,
      "ema": 8146,
      "Ġenvironments": 8147,
      "Ġbasketball": 8148,
      "hesis": 8149,
      "Ġcategories": 8150,
      "ĠAk": 8151,
      "Ġvel": 8152,
      "ĠWhich": 8153,
      "Ġseeking": 8154,
      "ĠFed": 8155,
      "ĠDaniel": 8156,
      "mble": 8157,
      "Ġconnections": 8158,
      "Ġreturns": 8159,
      "argets": 8160,
      "anted": 8161,
      "Ġfing": 8162,
      "child": 8163,
      "ressive": 8164,
      "Ġintent": 8165,
      "ĠBridge": 8166,
      "including": 8167,
      "[:": 8168,
      "iture": 8169,
      "lay": 8170,
      "Ġ34": 8171,
      "Ġgenerations": 8172,
      "Ġguarant": 8173,
      "Ġvisitors": 8174,
      "Ġvolt": 8175,
      "soft": 8176,
      "Ġsilence": 8177,
      "2006": 8178,
      "Ġprinted": 8179,
      "Ġchrom": 8180,
      "ĠDisease": 8181,
      "rat": 8182,
      "ĠWithout": 8183,
      "Ġmemb": 8184,
      "Ġproducer": 8185,
      "ĠSenate": 8186,
      "Ġthanks": 8187,
      "They": 8188,
      "Ġdamaged": 8189,
      "ĠÂ£": 8190,
      "ĠSecretary": 8191,
      "alm": 8192,
      "Ġcoat": 8193,
      "Ġestate": 8194,
      "ĠAdditionally": 8195,
      "Ġouter": 8196,
      "Ġtranslation": 8197,
      "Ġflower": 8198,
      "ĠHard": 8199,
      "Ġbreathing": 8200,
      "Ġpin": 8201,
      "Ġphysics": 8202,
      "Ġtransferred": 8203,
      "Ġresponses": 8204,
      "CR": 8205,
      "Ġdiox": 8206,
      "ami": 8207,
      "earing": 8208,
      "Ġinterpre": 8209,
      "uct": 8210,
      "ĠBrook": 8211,
      "Ġmad": 8212,
      "ĠPur": 8213,
      "2007": 8214,
      "Ġcattle": 8215,
      "Ġsculpt": 8216,
      "Ġsucceeded": 8217,
      "Ġfract": 8218,
      "base": 8219,
      "Ġhardly": 8220,
      "TP": 8221,
      "Ġtracks": 8222,
      "fold": 8223,
      "Ġpreval": 8224,
      "Ġsty": 8225,
      "rove": 8226,
      "dev": 8227,
      "Ġinformed": 8228,
      "Ġaftern": 8229,
      "Ġlights": 8230,
      "tic": 8231,
      "ĠSanta": 8232,
      "cm": 8233,
      "iov": 8234,
      "Ġcoastal": 8235,
      "59": 8236,
      "ĠDid": 8237,
      "ĠAM": 8238,
      "ĠFind": 8239,
      "Ġalarm": 8240,
      "ĠWinter": 8241,
      "Ġreaching": 8242,
      "Ġmedication": 8243,
      "ĠUnivers": 8244,
      "Ġ1967": 8245,
      "Ġretired": 8246,
      "Ġfishing": 8247,
      "Ġcouncil": 8248,
      "Ġinvestigation": 8249,
      "Ġtick": 8250,
      "Ġbath": 8251,
      "ĠGuard": 8252,
      "Ġvalley": 8253,
      "Ġbeneficial": 8254,
      "ĠAgency": 8255,
      "Ġstuff": 8256,
      "ĠTurn": 8257,
      "Ġkilling": 8258,
      "ĠCost": 8259,
      "ĠWeek": 8260,
      "wa": 8261,
      "json": 8262,
      "ĠFurthermore": 8263,
      "Ġwing": 8264,
      "Ġvictims": 8265,
      "herent": 8266,
      "Ġsuit": 8267,
      "Ġcompounds": 8268,
      "ĠProp": 8269,
      "Ġdemonstrated": 8270,
      "Ġtexts": 8271,
      "olester": 8272,
      "Ġ1964": 8273,
      "Ġstones": 8274,
      "Ġinstant": 8275,
      "Ġdefine": 8276,
      "Ġnutrition": 8277,
      "Ġestablishment": 8278,
      "ĠCrit": 8279,
      "Ġmedal": 8280,
      "Ð¾": 8281,
      "ĠOnt": 8282,
      "III": 8283,
      "IDS": 8284,
      "ĠLicense": 8285,
      "ĠTable": 8286,
      "Col": 8287,
      "Ġarchae": 8288,
      "Ġlosing": 8289,
      "Ġwidespread": 8290,
      "gian": 8291,
      "being": 8292,
      "ĠLearn": 8293,
      "ĠBBC": 8294,
      "Ġmood": 8295,
      "Ġvs": 8296,
      "Ġfeeding": 8297,
      "Ġplus": 8298,
      "Ġassumed": 8299,
      "ja": 8300,
      "Ġconstantly": 8301,
      "ĠTay": 8302,
      "ymph": 8303,
      "Ġdinner": 8304,
      "Ġorganisms": 8305,
      "Ġneur": 8306,
      "Ġprofessionals": 8307,
      "agan": 8308,
      "Ġunderlying": 8309,
      "Ġbegun": 8310,
      "Ġ39": 8311,
      "Ġregul": 8312,
      "ito": 8313,
      "Ġaccommod": 8314,
      "Ġ42": 8315,
      "elly": 8316,
      "Ġestimates": 8317,
      "ĠConfed": 8318,
      "Ġstatistics": 8319,
      "attered": 8320,
      "Ġrarely": 8321,
      "Ġmeal": 8322,
      "Ġspending": 8323,
      "Ġrepair": 8324,
      "asm": 8325,
      "ĠDick": 8326,
      "Ġmos": 8327,
      "Ġacids": 8328,
      "2005": 8329,
      "Ġthread": 8330,
      "Ġextension": 8331,
      "Ġroughly": 8332,
      "ĠRun": 8333,
      "Ġcareful": 8334,
      "Ġconverted": 8335,
      "Ġmarkets": 8336,
      "Ġvocals": 8337,
      "2000": 8338,
      "foot": 8339,
      "Ġsou": 8340,
      "Ġcourts": 8341,
      "iner": 8342,
      "Ġresemb": 8343,
      "Ġdates": 8344,
      "gon": 8345,
      "Ġbag": 8346,
      "mir": 8347,
      "Ġspin": 8348,
      "ĠBerlin": 8349,
      "Ġtelling": 8350,
      "Ġexamination": 8351,
      "aws": 8352,
      "ĠMir": 8353,
      "acco": 8354,
      "ĠNic": 8355,
      "Ġestimate": 8356,
      "Ġflour": 8357,
      "Ġfemales": 8358,
      "Not": 8359,
      "Ġcommunicate": 8360,
      "Ġdebut": 8361,
      "Ġcustomers": 8362,
      "Ġpool": 8363,
      "ĠLog": 8364,
      "Ã³n": 8365,
      "Ġwarning": 8366,
      "section": 8367,
      "Ġcommittee": 8368,
      "Ġmales": 8369,
      "Ġmeters": 8370,
      "ĠGame": 8371,
      "Ġagents": 8372,
      "ographical": 8373,
      "Ġhighlight": 8374,
      "Ġdoct": 8375,
      "ĠTO": 8376,
      "Ġ;": 8377,
      "Ġnoble": 8378,
      "Ġfiber": 8379,
      "utely": 8380,
      "olesterol": 8381,
      "ĠWik": 8382,
      "Ġapparently": 8383,
      "Ġgiant": 8384,
      "Ġrelax": 8385,
      "ĠBetween": 8386,
      "Ġearthqu": 8387,
      "ĠEqu": 8388,
      "Ġfool": 8389,
      "Ġfaced": 8390,
      "ĠConstant": 8391,
      "ĠWord": 8392,
      "Ġparticipation": 8393,
      "elesc": 8394,
      "Ġrom": 8395,
      "Ġimagine": 8396,
      "Ġvide": 8397,
      "âĢĻ,": 8398,
      "thod": 8399,
      "Ġbrothers": 8400,
      "ften": 8401,
      "ui": 8402,
      "Ġcharged": 8403,
      "Ġash": 8404,
      "bell": 8405,
      "eting": 8406,
      "han": 8407,
      "Ġrememb": 8408,
      "Ġerrors": 8409,
      "SE": 8410,
      "Ġclassical": 8411,
      "Ġencouraged": 8412,
      "Ġpoetry": 8413,
      "ĠDue": 8414,
      "Ġnervous": 8415,
      "center": 8416,
      "UL": 8417,
      "Ġpreparation": 8418,
      "ĠCall": 8419,
      "Ġcontributed": 8420,
      "Ġdifficulties": 8421,
      "ĠConnect": 8422,
      "2010": 8423,
      "pace": 8424,
      "ĠShow": 8425,
      "ĠPed": 8426,
      "ĠSab": 8427,
      "Ġarmed": 8428,
      "ĠStephen": 8429,
      "Ġfed": 8430,
      "Ġevaluation": 8431,
      "Ġliterary": 8432,
      "Ġmoves": 8433,
      "Ġobservation": 8434,
      "acks": 8435,
      "lik": 8436,
      "ĠPrim": 8437,
      "Ġattempted": 8438,
      "Ġverb": 8439,
      "hedul": 8440,
      "ĠGreece": 8441,
      "ĠVe": 8442,
      "uce": 8443,
      "ĠDoes": 8444,
      "Ġmessages": 8445,
      "Ġchick": 8446,
      "Ġmarks": 8447,
      "var": 8448,
      "Ġcow": 8449,
      "Ġvolcan": 8450,
      "Ġconsumers": 8451,
      "ĠIslamic": 8452,
      "itative": 8453,
      "Ġmice": 8454,
      "Ġaxis": 8455,
      "ĠMexican": 8456,
      "Ġ(&?;": 8457,
      "Ġ55": 8458,
      "Ġmechanical": 8459,
      "Ġspaces": 8460,
      "otype": 8461,
      "ĠSher": 8462,
      "client": 8463,
      "Ġbrings": 8464,
      "ĠâĨ": 8465,
      "idity": 8466,
      "arer": 8467,
      "Ġaged": 8468,
      "making": 8469,
      "Ġsymp": 8470,
      "etics": 8471,
      "Ġpilot": 8472,
      "Ġrelie": 8473,
      "Ġmechanisms": 8474,
      "Ġclothing": 8475,
      "ĠRef": 8476,
      "Ġconcert": 8477,
      "ĠUnf": 8478,
      "Ġmining": 8479,
      "ango": 8480,
      "train": 8481,
      "Ġsignificance": 8482,
      "Ġexhaust": 8483,
      "rolled": 8484,
      "ĠJane": 8485,
      "ĠNob": 8486,
      "ĠPhilipp": 8487,
      "Ġintegrated": 8488,
      "Ġexamine": 8489,
      "Ġwatching": 8490,
      "Ġgenus": 8491,
      "ĠBes": 8492,
      "pred": 8493,
      "Ġboost": 8494,
      "Ġsor": 8495,
      "Ġpermission": 8496,
      "Ġpoem": 8497,
      "Ġgrid": 8498,
      "ĠRegulations": 8499,
      "ĠAff": 8500,
      "Ġfavorite": 8501,
      "ĠRab": 8502,
      "Ġepid": 8503,
      "Ġvariables": 8504,
      "CT": 8505,
      "archy": 8506,
      "resses": 8507,
      "Ġflash": 8508,
      "Ġassistant": 8509,
      "Ġobserve": 8510,
      "ĠModel": 8511,
      "Ġgathered": 8512,
      "Ġpresentation": 8513,
      "Ġobjective": 8514,
      "Ġcalcium": 8515,
      "Ġfinger": 8516,
      "acles": 8517,
      "Ġhosp": 8518,
      "Ġelections": 8519,
      "Ġharmful": 8520,
      "Ġimplemented": 8521,
      "Ġpersu": 8522,
      "ĠTrust": 8523,
      "Ġgap": 8524,
      "Ġaddressed": 8525,
      "Ġdioxide": 8526,
      "Ġ37": 8527,
      "Ġconsideration": 8528,
      "Ġtub": 8529,
      "Ġcovering": 8530,
      "Ġtom": 8531,
      "Ġthank": 8532,
      "Ġ1965": 8533,
      "Ġtongue": 8534,
      "Ġcas": 8535,
      "aneous": 8536,
      "Ġcenters": 8537,
      "ĠRen": 8538,
      "forcement": 8539,
      "achel": 8540,
      "ĠBuilding": 8541,
      "Ġdental": 8542,
      "zona": 8543,
      "Ġdelivery": 8544,
      "ĠMP": 8545,
      "Ġplenty": 8546,
      "ournament": 8547,
      "rency": 8548,
      "CP": 8549,
      "Ġcollaboration": 8550,
      "tered": 8551,
      "ĠOfficial": 8552,
      "ĠSpring": 8553,
      "kind": 8554,
      "ĠKeep": 8555,
      "po": 8556,
      "Ġuniversal": 8557,
      "ĠGil": 8558,
      "Ġempire": 8559,
      "ĠAnc": 8560,
      "Ġsword": 8561,
      "Ġrespir": 8562,
      "Ġsilent": 8563,
      "ieval": 8564,
      "ighth": 8565,
      "Ġreturning": 8566,
      "ĠHebrew": 8567,
      "ifice": 8568,
      "Ġabsolute": 8569,
      "rooms": 8570,
      "ĠStill": 8571,
      "ĠOs": 8572,
      "List": 8573,
      "Ġparameters": 8574,
      "Ġaccompanied": 8575,
      "Ġafternoon": 8576,
      "ĠClick": 8577,
      "umph": 8578,
      "On": 8579,
      "Ġalumni": 8580,
      "ĠWalk": 8581,
      "Ġmerch": 8582,
      "Ġperfectly": 8583,
      "Ġstronger": 8584,
      "acent": 8585,
      "ĠRod": 8586,
      "Ġarguments": 8587,
      "2008": 8588,
      "ghan": 8589,
      "ĠResources": 8590,
      "Ġton": 8591,
      "ĠPM": 8592,
      "96": 8593,
      "Ġrab": 8594,
      "ĠTam": 8595,
      "Ġvon": 8596,
      "Ġrooms": 8597,
      "aration": 8598,
      "Ġcontrols": 8599,
      "Ġcomfortable": 8600,
      "essions": 8601,
      "Ġenorm": 8602,
      "Ġstimul": 8603,
      "Ġuncon": 8604,
      "initely": 8605,
      "aze": 8606,
      "Ġfunctional": 8607,
      "Ġsatellite": 8608,
      "Ġloud": 8609,
      "Ġholy": 8610,
      "ulous": 8611,
      "Ġdefeat": 8612,
      "Ġconj": 8613,
      "ĠMountain": 8614,
      "Ġpill": 8615,
      "ĠChristianity": 8616,
      "ĠTurkey": 8617,
      "ĠArea": 8618,
      "Ġdispl": 8619,
      "Ġrecover": 8620,
      "ĠMilitary": 8621,
      "GE": 8622,
      "Ġunw": 8623,
      "case": 8624,
      "Ġdistant": 8625,
      "Go": 8626,
      "Ġmathematics": 8627,
      "post": 8628,
      "Data": 8629,
      "Ġfacing": 8630,
      "Ġfeat": 8631,
      "Ġpush": 8632,
      "2009": 8633,
      "ĠCP": 8634,
      "ĠUk": 8635,
      "Ġcopper": 8636,
      "ĠMS": 8637,
      "Test": 8638,
      "Ġafterwards": 8639,
      "****": 8640,
      "Ġcastle": 8641,
      "ÂłččĊ": 8642,
      "Ġentrance": 8643,
      "uther": 8644,
      "Ġemotions": 8645,
      "Ġsatisfact": 8646,
      "Ġhealthcare": 8647,
      "door": 8648,
      "Ġintern": 8649,
      "Ġsubstantial": 8650,
      "Ġhunting": 8651,
      "sts": 8652,
      "ĠFarm": 8653,
      "Ġtheories": 8654,
      "pers": 8655,
      "orne": 8656,
      "ĠDub": 8657,
      "ko": 8658,
      "Ġproud": 8659,
      "Ġargued": 8660,
      "Ġoutbre": 8661,
      "ĠVictoria": 8662,
      "ouri": 8663,
      "Ġaccuracy": 8664,
      "Ġchurches": 8665,
      "istical": 8666,
      "Ġinsurance": 8667,
      "Ġrender": 8668,
      "Ġvillages": 8669,
      "Ġremarkable": 8670,
      "{}": 8671,
      "rection": 8672,
      "Ġemperor": 8673,
      "Ġcelebrated": 8674,
      "ĠMarsh": 8675,
      "Ġwisdom": 8676,
      "Ġdefect": 8677,
      "Ġfaculty": 8678,
      "Ġfinish": 8679,
      "burn": 8680,
      "Ġrestaur": 8681,
      "Ġbeliefs": 8682,
      "ĠHarvard": 8683,
      "âĢĺ": 8684,
      "ontal": 8685,
      "ĠOrganization": 8686,
      "Ġremind": 8687,
      "Ġaccessible": 8688,
      "Ġdiagnosed": 8689,
      "mad": 8690,
      "ĠLat": 8691,
      "vy": 8692,
      "Ġlists": 8693,
      "ĠBad": 8694,
      "Ġshoulder": 8695,
      "ĠArticle": 8696,
      "Ġaffairs": 8697,
      "Ġmanip": 8698,
      "Ġtort": 8699,
      "itzer": 8700,
      "Ġ1966": 8701,
      "contin": 8702,
      "Ġaqu": 8703,
      "ifted": 8704,
      "ĠTemple": 8705,
      "Ġexperimental": 8706,
      "When": 8707,
      "expected": 8708,
      "ĠProvince": 8709,
      "EE": 8710,
      "Ġalongside": 8711,
      "idance": 8712,
      "Ġtropical": 8713,
      "97": 8714,
      "br": 8715,
      "Ġcontamin": 8716,
      "Ġhappiness": 8717,
      "Ġrepresentation": 8718,
      "Ġfiction": 8719,
      "Ġbron": 8720,
      "Ġchose": 8721,
      "inth": 8722,
      "Ġ&?;": 8723,
      "Ġcreatures": 8724,
      "Ġfifty": 8725,
      "Ġfra": 8726,
      "ĠHim": 8727,
      "ĠNight": 8728,
      "ĠOntario": 8729,
      "Ġreactions": 8730,
      "reshold": 8731,
      "Ġdemonstrate": 8732,
      "engers": 8733,
      "ĠFace": 8734,
      "Ġtribes": 8735,
      "example": 8736,
      "ĠPlace": 8737,
      "ĠThird": 8738,
      "ĠBarb": 8739,
      "ometry": 8740,
      "ervative": 8741,
      "Ġphoto": 8742,
      "Ġphysician": 8743,
      "Ġlifestyle": 8744,
      "ĠEffect": 8745,
      "Ġassemb": 8746,
      "ĠSchools": 8747,
      "Ġsemi": 8748,
      "Ġmerc": 8749,
      "Ġinterior": 8750,
      "DE": 8751,
      "ĠVit": 8752,
      "Ġdisaster": 8753,
      "length": 8754,
      "ĠPoland": 8755,
      "Ġvirtual": 8756,
      "Ġgrounds": 8757,
      "incial": 8758,
      "Ġfeedback": 8759,
      "don": 8760,
      "GB": 8761,
      "ampion": 8762,
      "Ġconsumer": 8763,
      "hythm": 8764,
      "Ġofficially": 8765,
      "create": 8766,
      "Ġsubstances": 8767,
      "ĠPage": 8768,
      "plot": 8769,
      "Ġvulnerable": 8770,
      "ĠArizona": 8771,
      "ocated": 8772,
      "0000": 8773,
      "ĠSem": 8774,
      "Ġslavery": 8775,
      "ĠSn": 8776,
      "ĠLess": 8777,
      "arest": 8778,
      "iy": 8779,
      "Ġbeings": 8780,
      "Ġpsychological": 8781,
      "Ġsurve": 8782,
      "Ġbuff": 8783,
      "Ġtube": 8784,
      "92": 8785,
      "Ġforming": 8786,
      "Ġinterpretation": 8787,
      "Ġrice": 8788,
      "Ġcharacterized": 8789,
      "aning": 8790,
      "function": 8791,
      "Ġpresents": 8792,
      "93": 8793,
      "Ġclock": 8794,
      "Ġviolent": 8795,
      "nesota": 8796,
      "itivity": 8797,
      "Ġneuro": 8798,
      "((": 8799,
      "ĠObs": 8800,
      "Ġdescend": 8801,
      "Ġengines": 8802,
      "Ġcats": 8803,
      "Ġmaintaining": 8804,
      "Ġabandoned": 8805,
      "okes": 8806,
      "Ġfloat": 8807,
      "main": 8808,
      "Ġthreatened": 8809,
      "Do": 8810,
      "Ġconsidering": 8811,
      "Ġirrit": 8812,
      "gov": 8813,
      "Ġtrail": 8814,
      "ĠHan": 8815,
      "ĠResearchers": 8816,
      "oric": 8817,
      "bel": 8818,
      "Ġtower": 8819,
      "ĠBrad": 8820,
      "rox": 8821,
      "ĠLin": 8822,
      "ĠAud": 8823,
      "ĠFrid": 8824,
      "Ġexceed": 8825,
      "Ġessentially": 8826,
      "aft": 8827,
      "Ġperforming": 8828,
      "Ġadapted": 8829,
      "Ġkidney": 8830,
      "Ġgovernor": 8831,
      "quarters": 8832,
      "ĠÂ·": 8833,
      "Ġwrites": 8834,
      "ĠCE": 8835,
      "ĠHo": 8836,
      "Ġinspir": 8837,
      "Ġfallen": 8838,
      "ĠSource": 8839,
      "ĠGreg": 8840,
      "ĠOnline": 8841,
      "Ġongoing": 8842,
      "Ġsale": 8843,
      "Ġneighbour": 8844,
      "ĠLewis": 8845,
      "AF": 8846,
      "outheast": 8847,
      "Ġearned": 8848,
      "Ġjuris": 8849,
      "Ġly": 8850,
      "ĠLi": 8851,
      "ĠChange": 8852,
      "ĠProdu": 8853,
      "Ġlord": 8854,
      "Ġparas": 8855,
      "lan": 8856,
      "Ġstudio": 8857,
      "node": 8858,
      "ouds": 8859,
      "Ġindustries": 8860,
      "ĠMach": 8861,
      "ilst": 8862,
      "Ġdependent": 8863,
      "ĠPolish": 8864,
      "Ġpasses": 8865,
      "Ġscheme": 8866,
      "Ġmunicipality": 8867,
      "VID": 8868,
      "IF": 8869,
      "Ġinteractions": 8870,
      "default": 8871,
      "Ġchamber": 8872,
      "Ġlistening": 8873,
      "ĠSav": 8874,
      "Ġadoles": 8875,
      "ersion": 8876,
      "cut": 8877,
      "fall": 8878,
      "ĠUnfortunately": 8879,
      "ĠAlf": 8880,
      "Ġbreeding": 8881,
      "ĠVill": 8882,
      "ĠLocal": 8883,
      "Ġintense": 8884,
      "Ġcompare": 8885,
      "Ġgrace": 8886,
      "ĠMinistry": 8887,
      "ĠDemocratic": 8888,
      "Ġengineer": 8889,
      "vation": 8890,
      "2004": 8891,
      "ĠDC": 8892,
      "Ġtempor": 8893,
      "Ġhonour": 8894,
      "Ġmarry": 8895,
      "Ġentitled": 8896,
      "Ġ44": 8897,
      "OP": 8898,
      "non": 8899,
      "gged": 8900,
      "Ġsacred": 8901,
      "gressive": 8902,
      "Ġformerly": 8903,
      "Ġfabric": 8904,
      "ippi": 8905,
      "ĠMinnesota": 8906,
      "Ġcolonial": 8907,
      "pack": 8908,
      "Ġpond": 8909,
      "Ġrend": 8910,
      "Ġtemporary": 8911,
      "ĠEmperor": 8912,
      "ĠMembers": 8913,
      "itory": 8914,
      "Ġprofile": 8915,
      "ĠCopyright": 8916,
      "lem": 8917,
      "Ġentering": 8918,
      "Ġintention": 8919,
      "Ġsheep": 8920,
      "Ġrecon": 8921,
      "ocy": 8922,
      "Ġcandidate": 8923,
      "ugby": 8924,
      "ĠTry": 8925,
      "Ġaside": 8926,
      "Ġlabour": 8927,
      "ĠMond": 8928,
      "bow": 8929,
      "Ġgrain": 8930,
      "Ġq": 8931,
      "Ġwings": 8932,
      "Ġnice": 8933,
      "Ġincl": 8934,
      "plete": 8935,
      "ĠEU": 8936,
      "53": 8937,
      "Ġrealize": 8938,
      "aneously": 8939,
      "Ġquantity": 8940,
      "Ġmolecular": 8941,
      "Ġfriendly": 8942,
      "Ġcompens": 8943,
      "Ġcopies": 8944,
      "Ġjudgment": 8945,
      "Ġphrase": 8946,
      "oga": 8947,
      "Ġlips": 8948,
      "error": 8949,
      "Ġho": 8950,
      "Ġprogramme": 8951,
      "Ġexisted": 8952,
      "Ġassembly": 8953,
      "agen": 8954,
      "Ġbehaviors": 8955,
      "Ġham": 8956,
      "ĠIndeed": 8957,
      "Ðµ": 8958,
      "ĠLuc": 8959,
      "eman": 8960,
      "rait": 8961,
      "Ġwise": 8962,
      "Ġadequate": 8963,
      "ĠBalt": 8964,
      "Ġelectro": 8965,
      "ĠVideo": 8966,
      "Ġscan": 8967,
      "2012": 8968,
      "HS": 8969,
      "ĠFestival": 8970,
      "Ġmock": 8971,
      "Ġspecified": 8972,
      "Ġ1944": 8973,
      "Ġnoticed": 8974,
      "ĠArgent": 8975,
      "adron": 8976,
      "ĠMagn": 8977,
      "ĠLind": 8978,
      "ĠHay": 8979,
      "ECT": 8980,
      "cat": 8981,
      "Ġorgans": 8982,
      "ĠRos": 8983,
      "ĠNether": 8984,
      "Ġcholesterol": 8985,
      "Ġepisodes": 8986,
      "Ġgluc": 8987,
      "ĠKansas": 8988,
      "Ġformula": 8989,
      "Ġexamined": 8990,
      "Ġsurprised": 8991,
      "ritis": 8992,
      "Ġscientist": 8993,
      "ĠVietnam": 8994,
      "orus": 8995,
      "Ġarrival": 8996,
      "ĠMother": 8997,
      "CL": 8998,
      "Ġpregnant": 8999,
      "ĠPalest": 9000,
      "Ġtraditions": 9001,
      "Ġcaptain": 9002,
      "acon": 9003,
      "Ġkilomet": 9004,
      "ĠBh": 9005,
      "Ġpreserved": 9006,
      "Ġassume": 9007,
      "Ġsmile": 9008,
      "Ġgods": 9009,
      "Ġdesignated": 9010,
      "56": 9011,
      "Ġuncom": 9012,
      "Ġdistinguished": 9013,
      "Ġshock": 9014,
      "Ġdemands": 9015,
      "ctive": 9016,
      "Ġvig": 9017,
      "Ġdisturb": 9018,
      "ori": 9019,
      "uscript": 9020,
      "erable": 9021,
      "52": 9022,
      "ĠĠčĊ": 9023,
      "Ġdre": 9024,
      "gence": 9025,
      "Ġnotable": 9026,
      "bu": 9027,
      "bro": 9028,
      "Ġcounsel": 9029,
      "Ġattitude": 9030,
      "ĠMississ": 9031,
      "vision": 9032,
      "sum": 9033,
      "rint": 9034,
      "ogs": 9035,
      "Ġbaseball": 9036,
      "Ã¶l": 9037,
      "Ġdetection": 9038,
      "aug": 9039,
      "ĠLeon": 9040,
      "2011": 9041,
      "ji": 9042,
      "Ġdent": 9043,
      "Ã¢": 9044,
      "Ġdiameter": 9045,
      "dep": 9046,
      "Ġperceived": 9047,
      "ĠBru": 9048,
      "Ġcampus": 9049,
      "Ġanywhere": 9050,
      "Ġcriteria": 9051,
      "iva": 9052,
      "Ġbat": 9053,
      "western": 9054,
      "Ġmeasurements": 9055,
      "also": 9056,
      "update": 9057,
      "Ġcharacteristic": 9058,
      "Ġcourage": 9059,
      "ĠGulf": 9060,
      "Ġviewed": 9061,
      "iece": 9062,
      "Ġincred": 9063,
      "ĠSection": 9064,
      "actions": 9065,
      "ĠNorway": 9066,
      "Ġaffil": 9067,
      "amine": 9068,
      "emet": 9069,
      "Ġadvis": 9070,
      "54": 9071,
      "Ġdipl": 9072,
      "heimer": 9073,
      "Ġpanel": 9074,
      "float": 9075,
      "rays": 9076,
      "Ġmatches": 9077,
      "Ġfulf": 9078,
      "Ġcoverage": 9079,
      "Ġ[\"": 9080,
      "ĠTaylor": 9081,
      "friend": 9082,
      "onto": 9083,
      "Ġrect": 9084,
      "Ġoverw": 9085,
      "ĠImm": 9086,
      "Ġsubstit": 9087,
      "2003": 9088,
      "ĠTen": 9089,
      "Ġcord": 9090,
      "Ġdoors": 9091,
      "Ġbiology": 9092,
      "icular": 9093,
      "Ġrepresenting": 9094,
      "Ġorbit": 9095,
      "Ġduties": 9096,
      "obile": 9097,
      "Ġminds": 9098,
      "Ġtract": 9099,
      "elfare": 9100,
      "Ġ1963": 9101,
      "Ġflows": 9102,
      "Ġconsisting": 9103,
      "Ġfarming": 9104,
      "Ġdescent": 9105,
      "ĠRelig": 9106,
      "encing": 9107,
      "Ġpharm": 9108,
      "Ġpeoples": 9109,
      "Ġworry": 9110,
      "aren": 9111,
      "Ġscored": 9112,
      "Ġfu": 9113,
      "Ġschedule": 9114,
      "Ġoutcome": 9115,
      "Ġsurrounded": 9116,
      "Ġtargets": 9117,
      "Ġvariation": 9118,
      "icing": 9119,
      "uty": 9120,
      "DS": 9121,
      "Ġelsewhere": 9122,
      "Ġbabies": 9123,
      "doc": 9124,
      "Ġattacked": 9125,
      "serv": 9126,
      "Ġdeeply": 9127,
      "AB": 9128,
      "Ġcust": 9129,
      "ĠTar": 9130,
      "ĠReading": 9131,
      "Ġhide": 9132,
      "Ġlying": 9133,
      "Ġcalm": 9134,
      "ĠSmall": 9135,
      "atal": 9136,
      "Ġhills": 9137,
      "ĠView": 9138,
      "ĠCam": 9139,
      "ĠNich": 9140,
      "Ġmodule": 9141,
      "ĠPrize": 9142,
      "Ġhoney": 9143,
      "ĠLie": 9144,
      "irds": 9145,
      "filename": 9146,
      "Ġenemies": 9147,
      "Ġles": 9148,
      "ĠFa": 9149,
      "athan": 9150,
      "Id": 9151,
      "ĠBishop": 9152,
      "Ġfan": 9153,
      "Ġerect": 9154,
      "ĠMoses": 9155,
      "ĠCountry": 9156,
      "Ġconvert": 9157,
      "zan": 9158,
      "rans": 9159,
      "olas": 9160,
      "Ġphenomenon": 9161,
      "ĠSafety": 9162,
      "ĠDer": 9163,
      "Ġgreenhouse": 9164,
      "cover": 9165,
      "heric": 9166,
      "Ġracial": 9167,
      "ĠPrime": 9168,
      "onents": 9169,
      "94": 9170,
      "ĠShak": 9171,
      "Ġisolated": 9172,
      "Ġrecru": 9173,
      "Ġdealing": 9174,
      "84": 9175,
      "ĠHistorical": 9176,
      "Ġexercises": 9177,
      "Ġlosses": 9178,
      "Ġsteam": 9179,
      "Ġwooden": 9180,
      "pool": 9181,
      "endar": 9182,
      "Ġdeeper": 9183,
      "Ġobesity": 9184,
      "Ġchlor": 9185,
      "Ġcash": 9186,
      "Ġoccasionally": 9187,
      "Ġgolden": 9188,
      "roduction": 9189,
      "Ġmm": 9190,
      "Ġtables": 9191,
      "Ġtherap": 9192,
      "Ġaccord": 9193,
      "Ġweakness": 9194,
      "Ġ1962": 9195,
      "Ġspons": 9196,
      "track": 9197,
      "ĠFull": 9198,
      "Ġhaven": 9199,
      "Ġdiscrimination": 9200,
      "Ġherit": 9201,
      "ĠMissouri": 9202,
      "ĠSix": 9203,
      "ĠWithin": 9204,
      "ureau": 9205,
      "aping": 9206,
      "Ġsurfaces": 9207,
      "angered": 9208,
      "ĠConvention": 9209,
      "only": 9210,
      "Ġspectrum": 9211,
      "lib": 9212,
      "Ġfright": 9213,
      "Ġruled": 9214,
      "ilton": 9215,
      "ĠÂ©": 9216,
      "ĠFac": 9217,
      "Ġtrick": 9218,
      "Ġsurprising": 9219,
      "Ġcarb": 9220,
      "Ġinterface": 9221,
      "Ġmask": 9222,
      "ĠBand": 9223,
      "ĠAnton": 9224,
      "ĠEncyclop": 9225,
      "Ġbold": 9226,
      "Ġacres": 9227,
      "ĠJacob": 9228,
      "Ġresid": 9229,
      "Ġscores": 9230,
      "Ġmeasurement": 9231,
      "rity": 9232,
      "Ġending": 9233,
      "abulary": 9234,
      "Ġchampionship": 9235,
      "Ġremoval": 9236,
      "Ġgrave": 9237,
      "Ġ1942": 9238,
      "effect": 9239,
      "ĠNut": 9240,
      "Ġcorresponding": 9241,
      "Ġfingers": 9242,
      "ĠSud": 9243,
      "Ġvoltage": 9244,
      "Ġscope": 9245,
      "Ġdecay": 9246,
      "split": 9247,
      "Ġprisoners": 9248,
      "Ġreliable": 9249,
      "Ġenthus": 9250,
      "oil": 9251,
      "yard": 9252,
      "Ġfles": 9253,
      "Ġov": 9254,
      "Ġmicrosc": 9255,
      "idae": 9256,
      "ĠPhot": 9257,
      "Ġtut": 9258,
      "pol": 9259,
      "ĠPolicy": 9260,
      "onent": 9261,
      "Ġsovere": 9262,
      "Ġdetected": 9263,
      "Ġprofit": 9264,
      "IO": 9265,
      "Ġpreserve": 9266,
      "Ġfate": 9267,
      "Ġque": 9268,
      "Ġmineral": 9269,
      "elle": 9270,
      "Ġevolved": 9271,
      "earch": 9272,
      "Ġbreaking": 9273,
      "regon": 9274,
      "atial": 9275,
      "item": 9276,
      "opic": 9277,
      "Ġshapes": 9278,
      "Ġmurd": 9279,
      "emetery": 9280,
      "Ġ2023": 9281,
      "bled": 9282,
      "Ġtears": 9283,
      "Ġtf": 9284,
      "itage": 9285,
      "ĠMaryland": 9286,
      "ĠBat": 9287,
      "Ġextend": 9288,
      "Ġbeside": 9289,
      "Ġhumanity": 9290,
      "Ġacknowled": 9291,
      "Ġaudio": 9292,
      "rus": 9293,
      "ĠSP": 9294,
      "Ġtack": 9295,
      "angers": 9296,
      "who": 9297,
      "Ġsees": 9298,
      "Ġtender": 9299,
      "ailable": 9300,
      "Ġcomplicated": 9301,
      "oded": 9302,
      "Ġreferences": 9303,
      "Ġextraord": 9304,
      "ĠOR": 9305,
[...]
